{
  "encoder": {
    "21": 0,
    "22": 1,
    "23": 2,
    "24": 3,
    "25": 4,
    "26": 5,
    "27": 6,
    "28": 7,
    "29": 8,
    "2a": 9,
    "2b": 10,
    "2c": 11,
    "2d": 12,
    "2e": 13,
    "2f": 14,
    "30": 15,
    "31": 16,
    "32": 17,
    "33": 18,
    "34": 19,
    "35": 20,
    "36": 21,
    "37": 22,
    "38": 23,
    "39": 24,
    "3a": 25,
    "3b": 26,
    "3c": 27,
    "3d": 28,
    "3e": 29,
    "3f": 30,
    "40": 31,
    "41": 32,
    "42": 33,
    "43": 34,
    "44": 35,
    "45": 36,
    "46": 37,
    "47": 38,
    "48": 39,
    "49": 40,
    "4a": 41,
    "4b": 42,
    "4c": 43,
    "4d": 44,
    "4e": 45,
    "4f": 46,
    "50": 47,
    "51": 48,
    "52": 49,
    "53": 50,
    "54": 51,
    "55": 52,
    "56": 53,
    "57": 54,
    "58": 55,
    "59": 56,
    "5a": 57,
    "5b": 58,
    "5c": 59,
    "5d": 60,
    "5e": 61,
    "5f": 62,
    "60": 63,
    "61": 64,
    "62": 65,
    "63": 66,
    "64": 67,
    "65": 68,
    "66": 69,
    "67": 70,
    "68": 71,
    "69": 72,
    "6a": 73,
    "6b": 74,
    "6c": 75,
    "6d": 76,
    "6e": 77,
    "6f": 78,
    "70": 79,
    "71": 80,
    "72": 81,
    "73": 82,
    "74": 83,
    "75": 84,
    "76": 85,
    "77": 86,
    "78": 87,
    "79": 88,
    "7a": 89,
    "7b": 90,
    "7c": 91,
    "7d": 92,
    "7e": 93,
    "a1": 94,
    "a2": 95,
    "a3": 96,
    "a4": 97,
    "a5": 98,
    "a6": 99,
    "a7": 100,
    "a8": 101,
    "a9": 102,
    "aa": 103,
    "ab": 104,
    "ac": 105,
    "ae": 106,
    "af": 107,
    "b0": 108,
    "b1": 109,
    "b2": 110,
    "b3": 111,
    "b4": 112,
    "b5": 113,
    "b6": 114,
    "b7": 115,
    "b8": 116,
    "b9": 117,
    "ba": 118,
    "bb": 119,
    "bc": 120,
    "bd": 121,
    "be": 122,
    "bf": 123,
    "c0": 124,
    "c1": 125,
    "c2": 126,
    "c3": 127,
    "c4": 128,
    "c5": 129,
    "c6": 130,
    "c7": 131,
    "c8": 132,
    "c9": 133,
    "ca": 134,
    "cb": 135,
    "cc": 136,
    "cd": 137,
    "ce": 138,
    "cf": 139,
    "d0": 140,
    "d1": 141,
    "d2": 142,
    "d3": 143,
    "d4": 144,
    "d5": 145,
    "d6": 146,
    "d7": 147,
    "d8": 148,
    "d9": 149,
    "da": 150,
    "db": 151,
    "dc": 152,
    "dd": 153,
    "de": 154,
    "df": 155,
    "e0": 156,
    "e1": 157,
    "e2": 158,
    "e3": 159,
    "e4": 160,
    "e5": 161,
    "e6": 162,
    "e7": 163,
    "e8": 164,
    "e9": 165,
    "ea": 166,
    "eb": 167,
    "ec": 168,
    "ed": 169,
    "ee": 170,
    "ef": 171,
    "f0": 172,
    "f1": 173,
    "f2": 174,
    "f3": 175,
    "f4": 176,
    "f5": 177,
    "f6": 178,
    "f7": 179,
    "f8": 180,
    "f9": 181,
    "fa": 182,
    "fb": 183,
    "fc": 184,
    "fd": 185,
    "fe": 186,
    "ff": 187,
    "00": 188,
    "01": 189,
    "02": 190,
    "03": 191,
    "04": 192,
    "05": 193,
    "06": 194,
    "07": 195,
    "08": 196,
    "09": 197,
    "0a": 198,
    "0b": 199,
    "0c": 200,
    "0d": 201,
    "0e": 202,
    "0f": 203,
    "10": 204,
    "11": 205,
    "12": 206,
    "13": 207,
    "14": 208,
    "15": 209,
    "16": 210,
    "17": 211,
    "18": 212,
    "19": 213,
    "1a": 214,
    "1b": 215,
    "1c": 216,
    "1d": 217,
    "1e": 218,
    "1f": 219,
    "20": 220,
    "7f": 221,
    "80": 222,
    "81": 223,
    "82": 224,
    "83": 225,
    "84": 226,
    "85": 227,
    "86": 228,
    "87": 229,
    "88": 230,
    "89": 231,
    "8a": 232,
    "8b": 233,
    "8c": 234,
    "8d": 235,
    "8e": 236,
    "8f": 237,
    "90": 238,
    "91": 239,
    "92": 240,
    "93": 241,
    "94": 242,
    "95": 243,
    "96": 244,
    "97": 245,
    "98": 246,
    "99": 247,
    "9a": 248,
    "9b": 249,
    "9c": 250,
    "9d": 251,
    "9e": 252,
    "9f": 253,
    "a0": 254,
    "ad": 255,
    "2074": 256,
    "2061": 257,
    "207468": 258,
    "696e": 259,
    "6572": 260,
    "2077": 261,
    "2073": 262,
    "6f75": 263,
    "20746865": 264,
    "7265": 265,
    "6f6e": 266,
    "6174": 267,
    "656e": 268,
    "2063": 269,
    "6974": 270,
    "6973": 271,
    "2062": 272,
    "6e64": 273,
    "2064": 274,
    "206d": 275,
    "2068": 276,
    "206f": 277,
    "696e67": 278,
    "6573": 279,
    "2070": 280,
    "20746f": 281,
    "616e": 282,
    "2066": 283,
    "6f72": 284,
    "6c6c": 285,
    "2049": 286,
    "206c": 287,
    "2079": 288,
    "6172": 289,
    "2067": 290,
    "20796f75": 291,
    "6564": 292,
    "20616e64": 293,
    "20696e": 294,
    "206f66": 295,
    "6173": 296,
    "206e": 297,
    "6f6d": 298,
    "6963": 299,
    "2074686174": 300,
    "7573": 301,
    "6574": 302,
    "7665": 303,
    "616c": 304,
    "6f77": 305,
    "6c65": 306,
    "206973": 307,
    "2065": 308,
    "206974": 309,
    "6f74": 310,
    "2773": 311,
    "206265": 312,
    "696f6e": 313,
    "2054": 314,
    "207768": 315,
    "2041": 316,
    "656e74": 317,
    "2053": 318,
    "207265": 319,
    "6179": 320,
    "207765": 321,
    "206f6e": 322,
    "657265": 323,
    "206861": 324,
    "7574": 325,
    "6163": 326,
    "6964": 327,
    "6967": 328,
    "6f73": 329,
    "6b65": 330,
    "766572": 331,
    "696d": 332,
    "20d0": 333,
    "205468": 334,
    "616d": 335,
    "616c6c": 336,
    "20666f72": 337,
    "656c": 338,
    "6368": 339,
    "726f": 340,
    "2074686973": 341,
    "207374": 342,
    "2057": 343,
    "2075": 344,
    "6164": 345,
    "6f7574": 346,
    "6972": 347,
    "6c64": 348,
    "6374": 349,
    "206b": 350,
    "6966": 351,
    "20676f": 352,
    "2e2e": 353,
    "d0be": 354,
    "697468": 355,
    "6c79": 356,
    "6874": 357,
    "7175": 358,
    "202d": 359,
    "20646f": 360,
    "206a": 361,
    "2068617665": 362,
    "2042": 363,
    "20616e": 364,
    "2077697468": 365,
    "20617265": 366,
    "2072": 367,
    "206465": 368,
    "207365": 369,
    "20736f": 370,
    "2076": 371,
    "7374": 372,
    "696c6c": 373,
    "7572": 374,
    "206c69": 375,
    "204d": 376,
    "657374": 377,
    "6f64": 378,
    "616c6c79": 379,
    "2774": 380,
    "757374": 381,
    "206173": 382,
    "2043": 383,
    "6365": 384,
    "206d65": 385,
    "d0b0": 386,
    "d0b5": 387,
    "696c": 388,
    "2048": 389,
    "20776173": 390,
    "746572": 391,
    "7468": 392,
    "2063616e": 393,
    "616e74": 394,
    "20636f6d": 395,
    "6f7572": 396,
    "69676874": 397,
    "2059": 398,
    "6174696f6e": 399,
    "20416e64": 400,
    "6f6c": 401,
    "207368": 402,
    "d182": 403,
    "6f70": 404,
    "7365": 405,
    "206e6f74": 406,
    "20536f": 407,
    "206e65": 408,
    "756e": 409,
    "206162": 410,
    "206c696b65": 411,
    "206174": 412,
    "2044": 413,
    "6965": 414,
    "206865": 415,
    "20636f6e": 416,
    "206368": 417,
    "6f7265": 418,
    "20616c": 419,
    "206f72": 420,
    "207175": 421,
    "204f": 422,
    "6f6d65": 423,
    "7261": 424,
    "756c": 425,
    "204e": 426,
    "7070": 427,
    "20796f7572": 428,
    "6f756c64": 429,
    "2050": 430,
    "206672": 431,
    "6765": 432,
    "657273": 433,
    "277265": 434,
    "d0b8": 435,
    "2074686579": 436,
    "2077686174": 437,
    "757365": 438,
    "20616c6c": 439,
    "20546865": 440,
    "204c": 441,
    "657373": 442,
    "656d": 443,
    "206b6e": 444,
    "206a757374": 445,
    "617274": 446,
    "2070726f": 447,
    "76657279": 448,
    "756d": 449,
    "206c6f": 450,
    "20ec": 451,
    "206d79": 452,
    "6f6b": 453,
    "206578": 454,
    "6162": 455,
    "207468657265": 456,
    "20627574": 457,
    "206b6e6f77": 458,
    "207375": 459,
    "2047": 460,
    "d181": 461,
    "2045": 462,
    "206d61": 463,
    "d0bed0": 464,
    "20656e": 465,
    "2061626f7574": 466,
    "204974": 467,
    "697374": 468,
    "20776f72": 469,
    "7269": 470,
    "696e64": 471,
    "206f6e65": 472,
    "617465": 473,
    "616e64": 474,
    "696e6b": 475,
    "206c65": 476,
    "6f7274": 477,
    "276d": 478,
    "2046": 479,
    "696368": 480,
    "d180": 481,
    "696465": 482,
    "20676574": 483,
    "206f7574": 484,
    "2e2e2e": 485,
    "2077696c6c": 486,
    "e381": 487,
    "697665": 488,
    "d0bd": 489,
    "2066726f6d": 490,
    "61696e": 491,
    "205765": 492,
    "207570": 493,
    "7065": 494,
    "726573": 495,
    "6361": 496,
    "2052": 497,
    "206966": 498,
    "20706c": 499,
    "20646f6e": 500,
    "61636b": 501,
    "2031": 502,
    "2022": 503,
    "207472": 504,
    "207573": 505,
    "205768": 506,
    "697479": 507,
    "204a": 508,
    "20596f75": 509,
    "2068657265": 510,
    "686572": 511,
    "20736f6d65": 512,
    "6f7567": 513,
    "616b": 514,
    "617264": 515,
    "20676f696e67": 516,
    "20756e": 517,
    "6d656e74": 518,
    "207468696e6b": 519,
    "207065": 520,
    "656e64": 521,
    "2028": 522,
    "6361757365": 523,
    "2074696d": 524,
    "617374": 525,
    "c3a9": 526,
    "206f7572": 527,
    "2077616e74": 528,
    "616d65": 529,
    "696573": 530,
    "20eb": 531,
    "7564": 532,
    "696e65": 533,
    "207265616c6c79": 534,
    "207465": 535,
    "20736565": 536,
    "6369": 537,
    "206279": 538,
    "736f": 539,
    "757265": 540,
    "6f7365": 541,
    "205b": 542,
    "617265": 543,
    "206d6f7265": 544,
    "6168": 545,
    "6f6e65": 546,
    "636b": 547,
    "6f706c65": 548,
    "d0b0d0": 549,
    "207468656e": 550,
    "207468696e67": 551,
    "207468656d": 552,
    "76656e": 553,
    "6f756e64": 554,
    "6f7374": 555,
    "6f6e67": 556,
    "656374": 557,
    "207269676874": 558,
    "6167": 559,
    "20696e74": 560,
    "2070656f706c65": 561,
    "207768656e": 562,
    "6f7573": 563,
    "706c": 564,
    "2074696d65": 565,
    "20696d": 566,
    "2077686f": 567,
    "2032": 568,
    "6170": 569,
    "2062656361757365": 570,
    "68696e67": 571,
    "206e6f": 572,
    "696365": 573,
    "206c6f6f6b": 574,
    "20686173": 575,
    "20776f756c64": 576,
    "20686f77": 577,
    "616374": 578,
    "206665": 579,
    "6e74": 580,
    "6f756768": 581,
    "207072": 582,
    "20427574": 583,
    "20736179": 584,
    "d183": 585,
    "206e6f77": 586,
    "206d616e": 587,
    "2076657279": 588,
    "20776f726b": 589,
    "697a": 590,
    "204b": 591,
    "6976": 592,
    "697474": 593,
    "206172": 594,
    "6570": 595,
    "20636c": 596,
    "207768696368": 597,
    "20636f": 598,
    "616e73": 599,
    "277665": 600,
    "207361": 601,
    "6666": 602,
    "276c6c": 603,
    "20616e79": 604,
    "20616374": 605,
    "207965": 606,
    "626572": 607,
    "616368": 608,
    "616765": 609,
    "706572": 610,
    "20616c736f": 611,
    "666572": 612,
    "207468657365": 613,
    "206164": 614,
    "d0b5d0": 615,
    "74686572": 616,
    "616365": 617,
    "69636b": 618,
    "616b65": 619,
    "72656174": 620,
    "697265": 621,
    "7565": 622,
    "206167": 623,
    "2055": 624,
    "756368": 625,
    "696f6e73": 626,
    "7279": 627,
    "3030": 628,
    "6e61": 629,
    "20646964": 630,
    "20717565": 631,
    "20686164": 632,
    "206576657279": 633,
    "204865": 634,
    "206c61": 635,
    "20776179": 636,
    "207370": 637,
    "626c65": 638,
    "2054686973": 639,
    "617373": 640,
    "207468656972": 641,
    "697465": 642,
    "206e656564": 643,
    "2070617274": 644,
    "2077657265": 645,
    "206261636b": 646,
    "6970": 647,
    "6f776e": 648,
    "6f6d6574": 649,
    "6265": 650,
    "617365": 651,
    "206d616b65": 652,
    "69727374": 653,
    "6961": 654,
    "656e6365": 655,
    "616e67": 656,
    "616e6b": 657,
    "20676f74": 658,
    "20707265": 659,
    "20636f6e74": 660,
    "206f74686572": 661,
    "7074": 662,
    "2054686174": 663,
    "6f67": 664,
    "20676f6f64": 665,
    "20696e746f": 666,
    "616c6b": 667,
    "206265656e": 668,
    "20616d": 669,
    "206f766572": 670,
    "75616c6c79": 671,
    "20e2": 672,
    "ec9d": 673,
    "20756e64": 674,
    "6865": 675,
    "776179": 676,
    "206772": 677,
    "d18c": 678,
    "20646966": 679,
    "20706572": 680,
    "d18f": 681,
    "20496e": 682,
    "207477": 683,
    "6f6e64": 684,
    "617273": 685,
    "696e74": 686,
    "6f726d": 687,
    "206c6f74": 688,
    "207768657265": 689,
    "20c3": 690,
    "2056": 691,
    "20736f6d6574": 692,
    "d0bb": 693,
    "656e73": 694,
    "206775": 695,
    "206163": 696,
    "7567": 697,
    "d18b": 698,
    "c4b1": 699,
    "206669727374": 700,
    "726565": 701,
    "20686973": 702,
    "6974746c65": 703,
    "20696d70": 704,
    "206d6f": 705,
    "6176": 706,
    "206c6974746c65": 707,
    "2057686174": 708,
    "206d756368": 709,
    "207a": 710,
    "20ea": 711,
    "61626c65": 712,
    "20d0bf": 713,
    "20706f": 714,
    "20636f6d70": 715,
    "6e65": 716,
    "20646973": 717,
    "206c6574": 718,
    "616e6365": 719,
    "20686572": 720,
    "207468696e6773": 721,
    "207374617274": 722,
    "756c74": 723,
    "20617070": 724,
    "20726573": 725,
    "20666f": 726,
    "20636f756c64": 727,
    "20696e746572": 728,
    "2074686f7365": 729,
    "20646573": 730,
    "2077656c6c": 731,
    "2074776f": 732,
    "206b696e64": 733,
    "7874": 734,
    "72657373": 735,
    "656c79": 736,
    "c3a4": 737,
    "206272": 738,
    "20746872": 739,
    "20d0b2": 740,
    "2069": 741,
    "697368": 742,
    "20646966666572": 743,
    "20726f": 744,
    "205374": 745,
    "20736f6d657468696e67": 746,
    "2074616b65": 747,
    "20626f": 748,
    "7973": 749,
    "20736865": 750,
    "2074616c6b": 751,
    "6c6f": 752,
    "d187": 753,
    "206576656e": 754,
    "d0ba": 755,
    "e380": 756,
    "20d0bd": 757,
    "206275": 758,
    "204966": 759,
    "20646f776e": 760,
    "204368": 761,
    "616465": 762,
    "6174696f6e73": 763,
    "20757365": 764,
    "6f7264": 765,
    "206f6666": 766,
    "2061637475616c6c79": 767,
    "20737065": 768,
    "6475": 769,
    "61746564": 770,
    "61746572": 771,
    "6f7373": 772,
    "6e696e67": 773,
    "c3bc": 774,
    "20646f6573": 775,
    "20d181": 776,
    "206e6577": 777,
    "20626574": 778,
    "76656c": 779,
    "63657373": 780,
    "706c65": 781,
    "2068617070": 782,
    "74696e67": 783,
    "6f6e6e61": 784,
    "206573": 785,
    "20646179": 786,
    "206f6e6c79": 787,
    "69676e": 788,
    "6b6179": 789,
    "73656c": 790,
    "656e7473": 791,
    "6f756e74": 792,
    "696c64": 793,
    "696c65": 794,
    "207363": 795,
    "2068696d": 796,
    "20616761696e": 797,
    "76696e67": 798,
    "20676f6e6e61": 799,
    "20636f6d6d": 800,
    "2068656c": 801,
    "6f74686572": 802,
    "206b65": 803,
    "6963616c": 804,
    "2033": 805,
    "20656c": 806,
    "207468726f756768": 807,
    "20636f6d65": 808,
    "61726b": 809,
    "646179": 810,
    "696572": 811,
    "c3b3": 812,
    "207468616e": 813,
    "2054686579": 814,
    "206d6179": 815,
    "20736572": 816,
    "ed95": 817,
    "2063616c6c": 818,
    "20646966666572656e74": 819,
    "2073686f756c64": 820,
    "205468657265": 821,
    "617279": 822,
    "204e6f77": 823,
    "e382": 824,
    "7468696e67": 825,
    "7765": 826,
    "6f7279": 827,
    "66746572": 828,
    "20707574": 829,
    "6f7273": 830,
    "69616c": 831,
    "eb8b": 832,
    "20756e646572": 833,
    "20696e63": 834,
    "205965": 835,
    "7562": 836,
    "666f726d": 837,
    "2076696465": 838,
    "e0b8": 839,
    "76657273": 840,
    "206665656c": 841,
    "c3a1": 842,
    "6f6479": 843,
    "6674": 844,
    "666f7265": 845,
    "20656d": 846,
    "676574": 847,
    "2073616964": 848,
    "6974696f6e": 849,
    "20726563": 850,
    "696f7573": 851,
    "61746368": 852,
    "20747279": 853,
    "2068656c70": 854,
    "2073686f77": 855,
    "d0b4": 856,
    "20626974": 857,
    "756c6c": 858,
    "d0b2": 859,
    "d182d0be": 860,
    "6772": 861,
    "20706c6179": 862,
    "696665": 863,
    "61696c": 864,
    "2059656168": 865,
    "207175657374": 866,
    "206d616e79": 867,
    "2070657273": 868,
    "206772656174": 869,
    "c3ad": 870,
    "20657374": 871,
    "6e67": 872,
    "20e299": 873,
    "7479": 874,
    "6c61": 875,
    "204f68": 876,
    "20d7": 877,
    "e0ae": 878,
    "204265": 879,
    "616479": 880,
    "206d6f7374": 881,
    "6374696f6e": 882,
    "204e6f": 883,
    "20646f696e67": 884,
    "206265696e67": 885,
    "20746f6f": 886,
    "636573": 887,
    "20626c": 888,
    "2e22": 889,
    "2072656d": 890,
    "697373": 891,
    "6f6e73": 892,
    "3e3e": 893,
    "7275": 894,
    "776e": 895,
    "6f6e74": 896,
    "6962": 897,
    "656c6c": 898,
    "20736d": 899,
    "6f7468": 900,
    "75616c": 901,
    "203e3e": 902,
    "207068": 903,
    "6c6573": 904,
    "6f63": 905,
    "66756c": 906,
    "20736563": 907,
    "697365": 908,
    "20616464": 909,
    "696768": 910,
    "657274": 911,
    "2073616d65": 912,
    "e280": 913,
    "206d65616e": 914,
    "2066696e64": 915,
    "656b": 916,
    "20656e64": 917,
    "2d2d": 918,
    "d0bc": 919,
    "207374696c6c": 920,
    "617a": 921,
    "2027": 922,
    "206d696e": 923,
    "207965617273": 924,
    "75726e": 925,
    "2061726f756e64": 926,
    "73656c66": 927,
    "207772": 928,
    "6273": 929,
    "6f75676874": 930,
    "20e299aa": 931,
    "20666c": 932,
    "616e6765": 933,
    "206166746572": 934,
    "20706f696e74": 935,
    "6d6572": 936,
    "766564": 937,
    "206c6f6e67": 938,
    "6f79": 939,
    "e4b8": 940,
    "206372": 941,
    "77617973": 942,
    "207379": 943,
    "20747261": 944,
    "203230": 945,
    "617665": 946,
    "20636865": 947,
    "20656e74": 948,
    "206265666f7265": 949,
    "7068": 950,
    "20617474": 951,
    "69616e": 952,
    "696c79": 953,
    "20706572736f6e": 954,
    "20626967": 955,
    "20736368": 956,
    "207265616c": 957,
    "206e657874": 958,
    "206c6f7665": 959,
    "20766964656f": 960,
    "204c6574": 961,
    "2066696e": 962,
    "206d616b": 963,
    "69626c65": 964,
    "20746f646179": 965,
    "65726d": 966,
    "20416c": 967,
    "6f776572": 968,
    "616e6e": 969,
    "6978": 970,
    "20706172": 971,
    "2073747564": 972,
    "c3b6": 973,
    "20696d706f7274": 974,
    "7465": 975,
    "2067697665": 976,
    "766573": 977,
    "20646965": 978,
    "20646563": 979,
    "2074656c6c": 980,
    "20d0ba": 981,
    "d181d182": 982,
    "20776879": 983,
    "6963616c6c79": 984,
    "696374": 985,
    "726564": 986,
    "20626173": 987,
    "2073757265": 988,
    "2062656c": 989,
    "6174696e67": 990,
    "2074616b": 991,
    "20736574": 992,
    "206c696665": 993,
    "206469646e": 994,
    "d8a7": 995,
    "6f62": 996,
    "756e64": 997,
    "617468": 998,
    "206f70": 999,
    "20d0be": 1000,
    "616974": 1001,
    "20776f726c64": 1002,
    "2073757070": 1003,
    "696f": 1004,
    "20636f7572": 1005,
    "20d0b8": 1006,
    "77617264": 1007,
    "d0b5d0bd": 1008,
    "20616c77617973": 1009,
    "7570": 1010,
    "2068616e64": 1011,
    "20486f77": 1012,
    "6369616c": 1013,
    "20636f6e73": 1014,
    "20d1": 1015,
    "20696e64": 1016,
    "2034": 1017,
    "204173": 1018,
    "2066756e": 1019,
    "6a656374": 1020,
    "20696d706f7274616e74": 1021,
    "20737572": 1022,
    "6577": 1023,
    "61746573": 1024,
    "2035": 1025,
    "206469": 1026,
    "206d616465": 1027,
    "20696e73": 1028,
    "2061736b": 1029,
    "206574": 1030,
    "206e756d": 1031,
    "20636172": 1032,
    "204f6b6179": 1033,
    "2073696d": 1034,
    "696b": 1035,
    "206c617374": 1036,
    "20476f": 1037,
    "206d7573": 1038,
    "2072656c": 1039,
    "756c6172": 1040,
    "b4ec": 1041,
    "2057656c6c": 1042,
    "70656374": 1043,
    "205468616e6b": 1044,
    "207468726565": 1045,
    "c3a3": 1046,
    "e383": 1047,
    "20696e76": 1048,
    "2067656e": 1049,
    "6c6963": 1050,
    "2068617070656e": 1051,
    "eb8a": 1052,
    "69656e": 1053,
    "65766572": 1054,
    "d0bed0b2": 1055,
    "20737472": 1056,
    "20416c6c": 1057,
    "20696e7374": 1058,
    "20e280": 1059,
    "20646566": 1060,
    "20736c": 1061,
    "206d69676874": 1062,
    "756e67": 1063,
    "2079656172": 1064,
    "206f776e": 1065,
    "206b656570": 1066,
    "626f6479": 1067,
    "646572": 1068,
    "20d182": 1069,
    "20d0b4": 1070,
    "20616e6f74686572": 1071,
    "206d6f64": 1072,
    "206576": 1073,
    "2067757973": 1074,
    "2061626c65": 1075,
    "c3a36f": 1076,
    "717565": 1077,
    "6964656e74": 1078,
    "20596573": 1079,
    "20697473": 1080,
    "20706c616365": 1081,
    "2070726f6475": 1082,
    "61726e": 1083,
    "20d0bc": 1084,
    "20726570": 1085,
    "206578706572": 1086,
    "2066616d": 1087,
    "6974696573": 1088,
    "69666963": 1089,
    "2068696768": 1090,
    "696564": 1091,
    "6f6f6c": 1092,
    "696577": 1093,
    "d0b5d182": 1094,
    "72656e": 1095,
    "20646f6e65": 1096,
    "202e2e2e": 1097,
    "eb8a94": 1098,
    "7374656d": 1099,
    "205365": 1100,
    "20626574746572": 1101,
    "636f6d65": 1102,
    "2064656c": 1103,
    "207479": 1104,
    "20756d": 1105,
    "20686f": 1106,
    "20416e": 1107,
    "206d6f6e": 1108,
    "696e6773": 1109,
    "20736b": 1110,
    "206f62": 1111,
    "636f6d": 1112,
    "626c656d": 1113,
    "6f7065": 1114,
    "7374616e64": 1115,
    "2764": 1116,
    "6d656e7473": 1117,
    "20656c65": 1118,
    "204973": 1119,
    "206461": 1120,
    "20726567": 1121,
    "6c65617365": 1122,
    "696b65": 1123,
    "616c73": 1124,
    "697a65": 1125,
    "eab0": 1126,
    "2063617265": 1127,
    "206e65766572": 1128,
    "ec9db4": 1129,
    "657365": 1130,
    "206d6574": 1131,
    "6f6c6f67": 1132,
    "205768656e": 1133,
    "75636b": 1134,
    "d0b5d180": 1135,
    "20c3a9": 1136,
    "20646174": 1137,
    "c3a7": 1138,
    "206578616d": 1139,
    "696c697479": 1140,
    "20646574": 1141,
    "637269": 1142,
    "2075736564": 1143,
    "20446f": 1144,
    "207472616e73": 1145,
    "6567": 1146,
    "74656e": 1147,
    "d18e": 1148,
    "637573": 1149,
    "207365636f6e64": 1150,
    "2062657374": 1151,
    "2068617264": 1152,
    "20696465": 1153,
    "2070726f626c656d": 1154,
    "eab3": 1155,
    "20556e": 1156,
    "d185": 1157,
    "20ce": 1158,
    "207761746368": 1159,
    "205368": 1160,
    "6174746572": 1161,
    "2070726574": 1162,
    "20646572": 1163,
    "20636f75727365": 1164,
    "c59f": 1165,
    "6174697665": 1166,
    "696373": 1167,
    "207175657374696f6e": 1168,
    "757465": 1169,
    "ec97": 1170,
    "20466f72": 1171,
    "6174686572": 1172,
    "20636f6c": 1173,
    "69656e64": 1174,
    "20ed": 1175,
    "205a": 1176,
    "20646f65736e": 1177,
    "61726368": 1178,
    "20696e746572657374": 1179,
    "20706f6c": 1180,
    "20636f72": 1181,
    "69656e6365": 1182,
    "2070726573": 1183,
    "2065616368": 1184,
    "2073797374656d": 1185,
    "2066616374": 1186,
    "69656c": 1187,
    "61626c79": 1188,
    "206572": 1189,
    "2072756e": 1190,
    "20ec9d": 1191,
    "20746f70": 1192,
    "6e6572": 1193,
    "2074686f75676874": 1194,
    "20656173": 1195,
    "69656e74": 1196,
    "20637265": 1197,
    "d188": 1198,
    "20636f6d6d756e": 1199,
    "7965": 1200,
    "7265616479": 1201,
    "6c6c6f77": 1202,
    "2065766572797468696e67": 1203,
    "6f6d6d": 1204,
    "206d6564": 1205,
    "9a94": 1206,
    "20636f756e74": 1207,
    "697473": 1208,
    "20636f6d706c": 1209,
    "686970": 1210,
    "d984": 1211,
    "6f6f6b": 1212,
    "20746f676574": 1213,
    "20746f676574686572": 1214,
    "616d70": 1215,
    "2067616d65": 1216,
    "20616c7265616479": 1217,
    "d0b0d0bb": 1218,
    "2063616c6c6564": 1219,
    "616c65": 1220,
    "c582": 1221,
    "204d79": 1222,
    "20756e6465727374616e64": 1223,
    "206472": 1224,
    "206d6f6d": 1225,
    "69746564": 1226,
    "d0bed0bb": 1227,
    "207573696e67": 1228,
    "7a79": 1229,
    "206e756d626572": 1230,
    "e38081": 1231,
    "636564": 1232,
    "20636c65": 1233,
    "d0bdd0be": 1234,
    "eb8ba4": 1235,
    "696e6365": 1236,
    "206c6f6f6b696e67": 1237,
    "20707265747479": 1238,
    "2070726f62": 1239,
    "20536865": 1240,
    "207665": 1241,
    "2067657474696e67": 1242,
    "207765656b": 1243,
    "20656666": 1244,
    "756666": 1245,
    "616972": 1246,
    "756573": 1247,
    "65726e": 1248,
    "2051": 1249,
    "6f7570": 1250,
    "656e74696f6e": 1251,
    "2073696465": 1252,
    "d0bed0bc": 1253,
    "20666f726d": 1254,
    "20627573": 1255,
    "20617373": 1256,
    "206564": 1257,
    "61736f6e": 1258,
    "7765656e": 1259,
    "e280a6": 1260,
    "207475726e": 1261,
    "20637572": 1262,
    "20636f6c6c": 1263,
    "2064697265": 1264,
    "20476f64": 1265,
    "203130": 1266,
    "20657175": 1267,
    "20d0b1": 1268,
    "206f70656e": 1269,
    "2073756368": 1270,
    "697264": 1271,
    "d0b0d0ba": 1272,
    "20656172": 1273,
    "c499": 1274,
    "67616e": 1275,
    "20706172746963": 1276,
    "20667269656e64": 1277,
    "20657870": 1278,
    "20657874": 1279,
    "20686f6d65": 1280,
    "207761746572": 1281,
    "204f6e": 1282,
    "d182d18c": 1283,
    "6f726b": 1284,
    "20d0bfd180": 1285,
    "206d6f7665": 1286,
    "6e657373": 1287,
    "656e7365": 1288,
    "686f": 1289,
    "2063686172": 1290,
    "636f": 1291,
    "696e73": 1292,
    "20626f7468": 1293,
    "203139": 1294,
    "20677261": 1295,
    "206265747765656e": 1296,
    "e1bb": 1297,
    "20ec95": 1298,
    "617368": 1299,
    "205265": 1300,
    "6169": 1301,
    "616c7468": 1302,
    "75726573": 1303,
    "656d626572": 1304,
    "206176": 1305,
    "20766572": 1306,
    "c3aa": 1307,
    "6f6e6579": 1308,
    "207468616e6b": 1309,
    "206d61796265": 1310,
    "7563": 1311,
    "696d65": 1312,
    "eab3a0": 1313,
    "2061776179": 1314,
    "206e616d65": 1315,
    "6f757365": 1316,
    "20616363": 1317,
    "206d75736963": 1318,
    "206368616e6765": 1319,
    "2070617373": 1320,
    "676572": 1321,
    "206275696c64": 1322,
    "2076616c": 1323,
    "696e657373": 1324,
    "616e79": 1325,
    "20666577": 1326,
    "b4eb": 1327,
    "7461": 1328,
    "206c697374": 1329,
    "c3a5": 1330,
    "206f6c64": 1331,
    "20ec9e": 1332,
    "20736f7274": 1333,
    "206d656d": 1334,
    "206361": 1335,
    "63657074": 1336,
    "2067656e6572": 1337,
    "2079656168": 1338,
    "207768696c65": 1339,
    "20616e797468696e67": 1340,
    "726963": 1341,
    "6772616d": 1342,
    "2065696e": 1343,
    "6379": 1344,
    "7572696e67": 1345,
    "204465": 1346,
    "20706f776572": 1347,
    "20636f6d696e67": 1348,
    "20776f7264": 1349,
    "202d2d": 1350,
    "2062656c6965": 1351,
    "20666f756e64": 1352,
    "746f": 1353,
    "d0bf": 1354,
    "206d65616e73": 1355,
    "20696e666f726d": 1356,
    "20d8": 1357,
    "20d187": 1358,
    "20736d616c6c": 1359,
    "303030": 1360,
    "2063616d65": 1361,
    "20ed95": 1362,
    "7768": 1363,
    "20776f726b696e67": 1364,
    "206578616d706c65": 1365,
    "20706f73": 1366,
    "20646570": 1367,
    "eab2": 1368,
    "e4ba": 1369,
    "6f7465": 1370,
    "2064656d": 1371,
    "eca7": 1372,
    "7473": 1373,
    "20766172": 1374,
    "617574": 1375,
    "20747269": 1376,
    "63686e": 1377,
    "2068656164": 1378,
    "2077686f6c65": 1379,
    "d799": 1380,
    "7a65": 1381,
    "20747279696e67": 1382,
    "2074656d": 1383,
    "20636f75": 1384,
    "657473": 1385,
    "2036": 1386,
    "2066696c": 1387,
    "76656c6f70": 1388,
    "2063617365": 1389,
    "e0af": 1390,
    "2070726f6261626c79": 1391,
    "206f6b6179": 1392,
    "20706c616e": 1393,
    "20736974": 1394,
    "207363686f6f6c": 1395,
    "205468656e": 1396,
    "b8eb": 1397,
    "6d65": 1398,
    "2070726f63657373": 1399,
    "20666172": 1400,
    "2072656164": 1401,
    "20706f7373": 1402,
    "20627265": 1403,
    "20736f6c": 1404,
    "69636874": 1405,
    "20737570706f7274": 1406,
    "20546f": 1407,
    "65727461696e": 1408,
    "2073746172746564": 1409,
    "20636170": 1410,
    "206c656674": 1411,
    "2064617461": 1412,
    "2074696d6573": 1413,
    "d0b5d0bb": 1414,
    "2077616e746564": 1415,
    "d0b0d0bd": 1416,
    "2074616c6b696e67": 1417,
    "20697374": 1418,
    "20686176696e67": 1419,
    "756d70": 1420,
    "20636f6e74696e": 1421,
    "20737562": 1422,
    "20d0b7": 1423,
    "7072": 1424,
    "eb8b88": 1425,
    "696e61": 1426,
    "c5bc": 1427,
    "206372656174": 1428,
    "6f6465": 1429,
    "d795": 1430,
    "e698": 1431,
    "2121": 1432,
    "207465726d": 1433,
    "69736d": 1434,
    "d0bed0b4": 1435,
    "2042656361757365": 1436,
    "2077656e74": 1437,
    "69646572": 1438,
    "2070726f76": 1439,
    "206368696c64": 1440,
    "2064656e": 1441,
    "206c69676874": 1442,
    "6272": 1443,
    "b3d0be": 1444,
    "6f68": 1445,
    "20626f6f6b": 1446,
    "20d9": 1447,
    "7574696f6e": 1448,
    "204a757374": 1449,
    "656e65": 1450,
    "20666f7572": 1451,
    "20766973": 1452,
    "eab080": 1453,
    "20686f7065": 1454,
    "206d616b696e67": 1455,
    "204c65": 1456,
    "ec95": 1457,
    "206f7070": 1458,
    "6175": 1459,
    "206d6f6e6579": 1460,
    "2070726f6772616d": 1461,
    "c3a8": 1462,
    "207374616e64": 1463,
    "494e": 1464,
    "207369676e": 1465,
    "206c6561726e": 1466,
    "c3a0": 1467,
    "20446f6e": 1468,
    "207465616d": 1469,
    "20d0bdd0b0": 1470,
    "6c7564": 1471,
    "2072657374": 1472,
    "69636573": 1473,
    "e69c": 1474,
    "20d180": 1475,
    "20617574": 1476,
    "206c656164": 1477,
    "6174696f6e616c": 1478,
    "6465": 1479,
    "6779": 1480,
    "206e696365": 1481,
    "20646173": 1482,
    "2064697374": 1483,
    "2068756d": 1484,
    "204f6e65": 1485,
    "e688": 1486,
    "20636f6d6573": 1487,
    "206a6f": 1488,
    "2063656e74": 1489,
    "206578706c": 1490,
    "206d61726b": 1491,
    "7265656e": 1492,
    "6c6564": 1493,
    "67696e": 1494,
    "ec9a94": 1495,
    "206c6576656c": 1496,
    "20636f6e66": 1497,
    "757368": 1498,
    "20646576656c6f70": 1499,
    "2074657374": 1500,
    "656e67": 1501,
    "76696f7573": 1502,
    "6174757265": 1503,
    "d0b5d0bc": 1504,
    "726574": 1505,
    "206a65": 1506,
    "207374756666": 1507,
    "20636c617373": 1508,
    "6f7773": 1509,
    "20eab7": 1510,
    "207369": 1511,
    "206c6573": 1512,
    "726f70": 1513,
    "e79a": 1514,
    "20706f72": 1515,
    "20776172": 1516,
    "ec9790": 1517,
    "2065766572796f6e65": 1518,
    "206765": 1519,
    "20636865636b": 1520,
    "6f7474": 1521,
    "2073696e67": 1522,
    "20617274": 1523,
    "20666f6c6c6f77": 1524,
    "20323031": 1525,
    "204672": 1526,
    "616973": 1527,
    "ec96": 1528,
    "ceb1": 1529,
    "e5b0": 1530,
    "20c3a0": 1531,
    "696d6573": 1532,
    "20726574": 1533,
    "206368616e67": 1534,
    "20707562": 1535,
    "20696e66": 1536,
    "20746563686e": 1537,
    "616461": 1538,
    "69766573": 1539,
    "20626568": 1540,
    "e698af": 1541,
    "206c6f6f6b73": 1542,
    "e38082": 1543,
    "d0b7": 1544,
    "20576879": 1545,
    "e79a84": 1546,
    "20656e6f756768": 1547,
    "20627261": 1548,
    "69746368": 1549,
    "e4bb": 1550,
    "20616476": 1551,
    "d0b1": 1552,
    "20776974686f7574": 1553,
    "776572": 1554,
    "6d65726963": 1555,
    "64656e": 1556,
    "20636f6d706c6574": 1557,
    "2069646561": 1558,
    "74657273": 1559,
    "6f636b": 1560,
    "20646566696e": 1561,
    "2065766572": 1562,
    "20676c": 1563,
    "206f6e6365": 1564,
    "206272696e67": 1565,
    "20736179696e67": 1566,
    "20616e73": 1567,
    "2068656172": 1568,
    "6e656374": 1569,
    "206c657373": 1570,
    "676f": 1571,
    "7265616d": 1572,
    "61646f": 1573,
    "ec9e": 1574,
    "206d696e64": 1575,
    "656e7465": 1576,
    "2066756c6c": 1577,
    "20626164": 1578,
    "20776f6d": 1579,
    "20736f6d656f6e65": 1580,
    "206475": 1581,
    "20776f6e": 1582,
    "20636f6e74726f": 1583,
    "6f7274756e": 1584,
    "206865616c7468": 1585,
    "2063686f": 1586,
    "204172": 1587,
    "20636f6e63": 1588,
    "20696e666f726d6174696f6e": 1589,
    "2073746f70": 1590,
    "617474": 1591,
    "6174656c79": 1592,
    "e4bd": 1593,
    "2067726f7570": 1594,
    "20d183": 1595,
    "207175697465": 1596,
    "2072657370": 1597,
    "4552": 1598,
    "75676874": 1599,
    "eab8": 1600,
    "6d616e": 1601,
    "697a6564": 1602,
    "204272": 1603,
    "2072656d656d626572": 1604,
    "2066616d696c79": 1605,
    "20627573696e657373": 1606,
    "6177": 1607,
    "2073706563": 1608,
    "206175": 1609,
    "204f72": 1610,
    "c485": 1611,
    "207365656e": 1612,
    "206c6172": 1613,
    "2037": 1614,
    "6767": 1615,
    "62657273": 1616,
    "20647261": 1617,
    "206d6f6e7468": 1618,
    "2073617973": 1619,
    "20697373": 1620,
    "206c697665": 1621,
    "206c696e65": 1622,
    "206d6f6d656e74": 1623,
    "20657863": 1624,
    "656c73": 1625,
    "20736f756e64": 1626,
    "20636f6f6c": 1627,
    "206c6f63": 1628,
    "206365727461696e": 1629,
    "20647269": 1630,
    "d0bed182": 1631,
    "616d6573": 1632,
    "206d757374": 1633,
    "6e79": 1634,
    "d0b8d182": 1635,
    "206b6964": 1636,
    "20696e636c7564": 1637,
    "ec9d84": 1638,
    "61746f72": 1639,
    "c49f": 1640,
    "6861": 1641,
    "61726564": 1642,
    "207365656d": 1643,
    "d0b9": 1644,
    "ec84": 1645,
    "20656c7365": 1646,
    "20eca0": 1647,
    "69726c": 1648,
    "2038": 1649,
    "20766f": 1650,
    "207175657374696f6e73": 1651,
    "696e6573": 1652,
    "6565": 1653,
    "e68891": 1654,
    "c3bc72": 1655,
    "20416d65726963": 1656,
    "2073746f7279": 1657,
    "2073657276": 1658,
    "7665726e": 1659,
    "61676573": 1660,
    "6c616e64": 1661,
    "20e28093": 1662,
    "657261": 1663,
    "2043616e": 1664,
    "20706f70": 1665,
    "6574686572": 1666,
    "206e61": 1667,
    "206f72646572": 1668,
    "206d616b6573": 1669,
    "2073696e6365": 1670,
    "636f6e": 1671,
    "63746f72": 1672,
    "2074686f756768": 1673,
    "2070726f64756374": 1674,
    "d0bbd0b8": 1675,
    "206c6567": 1676,
    "206d656574": 1677,
    "616c66": 1678,
    "d181d18f": 1679,
    "756e6368": 1680,
    "69746572": 1681,
    "6f7665": 1682,
    "d795d7": 1683,
    "696574": 1684,
    "d0b0d0bc": 1685,
    "6974616c": 1686,
    "207375706572": 1687,
    "6c696e67": 1688,
    "20706179": 1689,
    "2070617261": 1690,
    "206a6f62": 1691,
    "2048657265": 1692,
    "207377": 1693,
    "6b73": 1694,
    "7074696f6e": 1695,
    "6d61": 1696,
    "2062656c69657665": 1697,
    "aceb": 1698,
    "2077616974": 1699,
    "d0bed0b9": 1700,
    "20756e74": 1701,
    "20717569636b": 1702,
    "6872": 1703,
    "20d18d": 1704,
    "2050726f": 1705,
    "206d656e": 1706,
    "e0b9": 1707,
    "2064617973": 1708,
    "20676f6573": 1709,
    "20737065616b": 1710,
    "204174": 1711,
    "656d656e74": 1712,
    "206d697373": 1713,
    "206177": 1714,
    "2064657369676e": 1715,
    "2070726f6a656374": 1716,
    "d0bed180": 1717,
    "696a": 1718,
    "616e7473": 1719,
    "617473": 1720,
    "20436872": 1721,
    "2039": 1722,
    "20637574": 1723,
    "2072657175": 1724,
    "20d0bdd0b5": 1725,
    "204e6f74": 1726,
    "6173746572": 1727,
    "206d696c6c": 1728,
    "20706172746963756c6172": 1729,
    "20706965": 1730,
    "2073747564656e7473": 1731,
    "2066697665": 1732,
    "6f756e": 1733,
    "204e65": 1734,
    "206769": 1735,
    "20706173": 1736,
    "2066726565": 1737,
    "205370": 1738,
    "6c696368": 1739,
    "2070726f66": 1740,
    "20656e67": 1741,
    "2070726f74": 1742,
    "204c696b65": 1743,
    "6f736564": 1744,
    "20636f6e6e656374": 1745,
    "617070": 1746,
    "20eba7": 1747,
    "6974696e67": 1748,
    "20626c6f": 1749,
    "206c6f73": 1750,
    "69737473": 1751,
    "20657870657269656e6365": 1752,
    "72656e74": 1753,
    "2073746179": 1754,
    "20666f6f64": 1755,
    "746f6e": 1756,
    "72756374": 1757,
    "2068697374": 1758,
    "76696577": 1759,
    "696e696e67": 1760,
    "6d6f7374": 1761,
    "6976657273": 1762,
    "626f": 1763,
    "e38184": 1764,
    "205472": 1765,
    "67656e": 1766,
    "20706c65617365": 1767,
    "20636f6d6d756e697479": 1768,
    "206365": 1769,
    "414e": 1770,
    "6e6f": 1771,
    "20626f6479": 1772,
    "20686f7572": 1773,
    "2076657273": 1774,
    "e1ba": 1775,
    "636572": 1776,
    "20eab0": 1777,
    "20726561736f6e": 1778,
    "205269676874": 1779,
    "206c61746572": 1780,
    "cf84": 1781,
    "20686f757365": 1782,
    "2058": 1783,
    "d0bed0bd": 1784,
    "207374617465": 1785,
    "666963": 1786,
    "e5a4": 1787,
    "c59b": 1788,
    "69656c64": 1789,
    "20707269": 1790,
    "2070617374": 1791,
    "2077616c6b": 1792,
    "6f6c6f6779": 1793,
    "6572696e67": 1794,
    "616e6e61": 1795,
    "20746572": 1796,
    "20686f6c64": 1797,
    "206f7267616e": 1798,
    "62656e": 1799,
    "cebf": 1800,
    "c3b36e": 1801,
    "20656666656374": 1802,
    "20796f757273656c66": 1803,
    "20706c7573": 1804,
    "616a": 1805,
    "616e646f": 1806,
    "7572616c": 1807,
    "20726f6f6d": 1808,
    "6c656374": 1809,
    "eab28c": 1810,
    "3f22": 1811,
    "73696465": 1812,
    "206265636f6d65": 1813,
    "d186": 1814,
    "20c2": 1815,
    "6f6f64": 1816,
    "20636f6e7374": 1817,
    "206e69676874": 1818,
    "75746573": 1819,
    "d0b6": 1820,
    "20627265616b": 1821,
    "207061696e": 1822,
    "2073746570": 1823,
    "69726564": 1824,
    "206e6f7468696e67": 1825,
    "20756e74696c": 1826,
    "d196": 1827,
    "d0b0d0b2": 1828,
    "d98a": 1829,
    "20647572696e67": 1830,
    "eca780": 1831,
    "6c657373": 1832,
    "6f6c6c": 1833,
    "d0bdd18b": 1834,
    "ceb9": 1835,
    "66656374": 1836,
    "69766572": 1837,
    "8f84": 1838,
    "6974686572": 1839,
    "79696e67": 1840,
    "20626567696e": 1841,
    "d799d7": 1842,
    "69766964": 1843,
    "20c3a7": 1844,
    "2073616c": 1845,
    "207461": 1846,
    "20706f74": 1847,
    "2024": 1848,
    "206d6172": 1849,
    "20636c656172": 1850,
    "2066616365": 1851,
    "2067726f77": 1852,
    "202a": 1853,
    "20696e73696465": 1854,
    "20667269656e6473": 1855,
    "206c65617665": 1856,
    "656e6e": 1857,
    "2065617379": 1858,
    "2061726561": 1859,
    "616c697479": 1860,
    "6f7564": 1861,
    "20656174": 1862,
    "d986": 1863,
    "20707572": 1864,
    "6f726e": 1865,
    "20736177": 1866,
    "20616e73776572": 1867,
    "2066726f6e74": 1868,
    "206265617574": 1869,
    "bceb": 1870,
    "206d6174746572": 1871,
    "20736f6e": 1872,
    "204e6577": 1873,
    "20726573756c74": 1874,
    "69646573": 1875,
    "636865": 1876,
    "20667574": 1877,
    "7073": 1878,
    "20666f637573": 1879,
    "20696e746572657374696e67": 1880,
    "e5a5": 1881,
    "206170": 1882,
    "222e": 1883,
    "20637265617465": 1884,
    "d0bed181": 1885,
    "207072657373": 1886,
    "726f7373": 1887,
    "207069636b": 1888,
    "6c696e65": 1889,
    "20746f6f6b": 1890,
    "204d6179": 1891,
    "726f77": 1892,
    "20696368": 1893,
    "98eb": 1894,
    "20726566": 1895,
    "206d6f72": 1896,
    "72616374": 1897,
    "6172656e74": 1898,
    "4152": 1899,
    "206578616374": 1900,
    "207370616365": 1901,
    "776f726b": 1902,
    "d0bdd0b8": 1903,
    "20626972": 1904,
    "20646576": 1905,
    "d0b3": 1906,
    "20746f6c64": 1907,
    "207075626c6963": 1908,
    "6369616c6c79": 1909,
    "2076696577": 1910,
    "20486579": 1911,
    "6d6564": 1912,
    "6c6c6f": 1913,
    "6363": 1914,
    "20666163": 1915,
    "20636f75706c65": 1916,
    "206865617274": 1917,
    "6c6572": 1918,
    "207265616479": 1919,
    "20616c6d6f7374": 1920,
    "6172696e67": 1921,
    "2068616c66": 1922,
    "204d65": 1923,
    "61766f72": 1924,
    "69717565": 1925,
    "20636861726163": 1926,
    "207072616374": 1927,
    "4f4e": 1928,
    "616e65": 1929,
    "20696c": 1930,
    "d0bdd0b0": 1931,
    "207669": 1932,
    "6c697368": 1933,
    "68656164": 1934,
    "206c65617374": 1935,
    "206261736963616c6c79": 1936,
    "61736564": 1937,
    "7269676874": 1938,
    "20796574": 1939,
    "2074616b696e67": 1940,
    "20636f756e747279": 1941,
    "2077696e": 1942,
    "2069736e": 1943,
    "20706f737369626c65": 1944,
    "2063616d": 1945,
    "20696e637265": 1946,
    "20706174": 1947,
    "2077616e6e61": 1948,
    "20636f6e7369646572": 1949,
    "20616273": 1950,
    "2077697468696e": 1951,
    "2068756d616e": 1952,
    "207468696e6b696e67": 1953,
    "206f68": 1954,
    "a19c": 1955,
    "20717569": 1956,
    "61736573": 1957,
    "2030": 1958,
    "6974656c79": 1959,
    "e4b88d": 1960,
    "206b696c6c": 1961,
    "206d696c": 1962,
    "20696e76657374": 1963,
    "6973746572": 1964,
    "20737563": 1965,
    "696f6e616c": 1966,
    "656c66": 1967,
    "2077686574686572": 1968,
    "20636f6e74726f6c": 1969,
    "20616761696e7374": 1970,
    "6f7473": 1971,
    "eb8b88eb8ba4": 1972,
    "696f72": 1973,
    "2070726573656e74": 1974,
    "20d8a7": 1975,
    "207761746368696e67": 1976,
    "756265": 1977,
    "657276": 1978,
    "206e69636874": 1979,
    "20676f7665726e": 1980,
    "205468657365": 1981,
    "203a": 1982,
    "756974": 1983,
    "756768": 1984,
    "20776f726b73": 1985,
    "6f6f": 1986,
    "20776972": 1987,
    "20616972": 1988,
    "205465": 1989,
    "d0b0d0b7": 1990,
    "6973696f6e": 1991,
    "7768657265": 1992,
    "20746f74": 1993,
    "6a6f79": 1994,
    "ec8b": 1995,
    "20766f6c": 1996,
    "20d0b5": 1997,
    "20636c6f7365": 1998,
    "204164": 1999,
    "d189": 2000,
    "696e6564": 2001,
    "20756e61": 2002,
    "20eab7b8eb": 2003,
    "b0eb": 2004,
    "6f727279": 2005,
    "2062726f": 2006,
    "2066696c6d": 2007,
    "696674": 2008,
    "3230": 2009,
    "2074797065": 2010,
    "2068617070656e6564": 2011,
    "20416d": 2012,
    "206769726c": 2013,
    "20417265": 2014,
    "7761726473": 2015,
    "20706f7572": 2016,
    "20636f6c6f72": 2017,
    "656c74": 2018,
    "d0b0d181": 2019,
    "2073656e7365": 2020,
    "6c6578": 2021,
    "2057697468": 2022,
    "757373": 2023,
    "726962": 2024,
    "2072657365": 2025,
    "206e6f726d": 2026,
    "20667574757265": 2027,
    "206465616c": 2028,
    "656e64696e67": 2029,
    "6579": 2030,
    "2078": 2031,
    "65726f": 2032,
    "20436c": 2033,
    "756b": 2034,
    "207768617465766572": 2035,
    "73656c766573": 2036,
    "20796f756e67": 2037,
    "ec8a": 2038,
    "204d6172": 2039,
    "20436872697374": 2040,
    "206775657373": 2041,
    "20706572666f726d": 2042,
    "20656e6572": 2043,
    "726f6e": 2044,
    "20686974": 2045,
    "20776f6e64": 2046,
    "20646972656374": 2047,
    "204576657279": 2048,
    "206f6674656e": 2049,
    "206661": 2050,
    "20616c6f6e67": 2051,
    "20636c69636b": 2052,
    "204c6f6f6b": 2053,
    "2073697475": 2054,
    "206861707079": 2055,
    "656164": 2056,
    "2061676f": 2057,
    "20656e63": 2058,
    "206d7973656c66": 2059,
    "20636f766572": 2060,
    "d0bed0b1": 2061,
    "206d6964": 2062,
    "20636f7374": 2063,
    "2074656e": 2064,
    "20536368": 2065,
    "20657870656374": 2066,
    "207761736e": 2067,
    "207374726f6e67": 2068,
    "6966756c": 2069,
    "206f70706f7274756e": 2070,
    "696e616c": 2071,
    "796c65": 2072,
    "207368617265": 2073,
    "2074727565": 2074,
    "20617070726f": 2075,
    "206368616c6c": 2076,
    "206d696e75746573": 2077,
    "206368616e6e": 2078,
    "20eb82": 2079,
    "ceb5": 2080,
    "6c69": 2081,
    "206d657373": 2082,
    "6f72696573": 2083,
    "70656369616c6c79": 2084,
    "2077726f6e67": 2085,
    "20796573": 2086,
    "20ec97": 2087,
    "69726f6e": 2088,
    "20616c6c6f77": 2089,
    "2073756273": 2090,
    "20666f7265": 2091,
    "206669676874": 2092,
    "20736f6369616c": 2093,
    "20637261": 2094,
    "616e61": 2095,
    "20616666": 2096,
    "20657373": 2097,
    "2077617973": 2098,
    "2073686f7274": 2099,
    "2066616c6c": 2100,
    "206c6177": 2101,
    "2057686f": 2102,
    "20656e6a6f79": 2103,
    "2063616c": 2104,
    "20616363657373": 2105,
    "6665": 2106,
    "206e6f6e": 2107,
    "206163726f7373": 2108,
    "657279": 2109,
    "76696f75736c79": 2110,
    "204578": 2111,
    "69646564": 2112,
    "206c696e6b": 2113,
    "205072": 2114,
    "207465726d73": 2115,
    "61636573": 2116,
    "206c616e64": 2117,
    "617a696e67": 2118,
    "203135": 2119,
    "206d756c74": 2120,
    "207370656369616c": 2121,
    "e580": 2122,
    "6976696e67": 2123,
    "ec9d80": 2124,
    "20747970": 2125,
    "20737465": 2126,
    "20c4": 2127,
    "20666f7277617264": 2128,
    "e58f": 2129,
    "20667265": 2130,
    "e5a5bd": 2131,
    "207265736561726368": 2132,
    "e0af8d": 2133,
    "d0b0d182": 2134,
    "206d61696e": 2135,
    "207265636f7264": 2136,
    "206875": 2137,
    "20646566696e6974656c79": 2138,
    "20656974686572": 2139,
    "206c697374656e": 2140,
    "206b6579": 2141,
    "206d61726b6574": 2142,
    "20d187d182d0be": 2143,
    "697a6174696f6e": 2144,
    "20766964656f73": 2145,
    "20677579": 2146,
    "20666967": 2147,
    "2073747261": 2148,
    "20506c": 2149,
    "756c6c79": 2150,
    "616d6f73": 2151,
    "206d656e74696f6e": 2152,
    "20736f6e67": 2153,
    "20696e7465726e": 2154,
    "72616c": 2155,
    "757273": 2156,
    "20686f6e": 2157,
    "2076616c7565": 2158,
    "20626172": 2159,
    "636c65": 2160,
    "d0bed0b6": 2161,
    "c487": 2162,
    "9ceb": 2163,
    "207a75": 2164,
    "d0b8d0bc": 2165,
    "e4bda0": 2166,
    "2073696e676c65": 2167,
    "2061756368": 2168,
    "63757373": 2169,
    "2067657473": 2170,
    "20736f6d6574696d6573": 2171,
    "e5be": 2172,
    "616d62": 2173,
    "6d6d": 2174,
    "63696e67": 2175,
    "2070657266656374": 2176,
    "20426c": 2177,
    "6f757468": 2178,
    "eca0": 2179,
    "20736369": 2180,
    "706172": 2181,
    "20726564": 2182,
    "20706f7374": 2183,
    "206d6f74": 2184,
    "20656c656374": 2185,
    "204575": 2186,
    "6974697665": 2187,
    "20536f6d65": 2188,
    "20646573637269": 2189,
    "2063757272656e74": 2190,
    "c3a973": 2191,
    "20747265": 2192,
    "20456e": 2193,
    "206d6974": 2194,
    "454e": 2195,
    "88eb": 2196,
    "69756d": 2197,
    "206865617264": 2198,
    "2073696d706c65": 2199,
    "6c6172": 2200,
    "206576657279626f6479": 2201,
    "696c6172": 2202,
    "206e65656473": 2203,
    "20646966666963": 2204,
    "20476f6f64": 2205,
    "756d656e74": 2206,
    "63656e74": 2207,
    "206f706572": 2208,
    "d0b0d182d18c": 2209,
    "657479": 2210,
    "20626c61636b": 2211,
    "20676976656e": 2212,
    "6f6e6573": 2213,
    "2077656c": 2214,
    "e980": 2215,
    "20ec9584": 2216,
    "203330": 2217,
    "4154": 2218,
    "2073746174": 2219,
    "6f756368": 2220,
    "204d72": 2221,
    "d0b0d180": 2222,
    "2073686f": 2223,
    "20636f6e64": 2224,
    "d794": 2225,
    "6d79": 2226,
    "206368696c6472656e": 2227,
    "206575": 2228,
    "d0b5d0b4": 2229,
    "ec9584": 2230,
    "7465726e": 2231,
    "207568": 2232,
    "20686172": 2233,
    "2070726f6d": 2234,
    "2070756c6c": 2235,
    "726577": 2236,
    "20636f6d70616e79": 2237,
    "2062656175746966756c": 2238,
    "7573746f6d": 2239,
    "ed9598": 2240,
    "d0bad0b8": 2241,
    "2073747265": 2242,
    "20616d617a696e67": 2243,
    "72696573": 2244,
    "2073756363657373": 2245,
    "206d616368": 2246,
    "6e6f74": 2247,
    "2064697363757373": 2248,
    "206e6174": 2249,
    "a6ac": 2250,
    "20756e65": 2251,
    "20646966666963756c74": 2252,
    "20726973": 2253,
    "cebd": 2254,
    "2063616d70": 2255,
    "20627579": 2256,
    "e4b880": 2257,
    "206d6167": 2258,
    "706f": 2259,
    "20596f7572": 2260,
    "20626568696e64": 2261,
    "696361": 2262,
    "c4b16e": 2263,
    "204f4b": 2264,
    "206c616e67": 2265,
    "20776f6d656e": 2266,
    "20656e76": 2267,
    "2072656365": 2268,
    "206368616e6e656c": 2269,
    "69616c6c79": 2270,
    "756c65": 2271,
    "203132": 2272,
    "7468657273": 2273,
    "20626f7474": 2274,
    "207265706f7274": 2275,
    "656e746c79": 2276,
    "66756c6c79": 2277,
    "546865": 2278,
    "2073656e74": 2279,
    "206576656e74": 2280,
    "20656e65726779": 2281,
    "6c74": 2282,
    "20776f726473": 2283,
    "617272": 2284,
    "646c65": 2285,
    "206168656164": 2286,
    "61726473": 2287,
    "d8b1": 2288,
    "e4ba86": 2289,
    "20746f6f6c": 2290,
    "636f6e6f6d": 2291,
    "d0b5d181": 2292,
    "2065786163746c79": 2293,
    "206661766f72": 2294,
    "206c6f77": 2295,
    "2070726f706572": 2296,
    "20ec9e88": 2297,
    "2021": 2298,
    "2072656c6174696f6e73": 2299,
    "206d6173": 2300,
    "206b696473": 2301,
    "20656e74697265": 2302,
    "756465": 2303,
    "d985": 2304,
    "205768657265": 2305,
    "206f6e6573": 2306,
    "2063697479": 2307,
    "6f6c7574": 2308,
    "20736978": 2309,
    "6162696c697479": 2310,
    "c3b672": 2311,
    "696c69": 2312,
    "204573": 2313,
    "2068617070656e73": 2314,
    "61696e73": 2315,
    "206d6f64656c": 2316,
    "2070696374": 2317,
    "20657370656369616c6c79": 2318,
    "20313030": 2319,
    "6b74": 2320,
    "20736f6f6e": 2321,
    "6279": 2322,
    "726f6475": 2323,
    "20616e6e": 2324,
    "2073756273637269": 2325,
    "205175": 2326,
    "20617661696c": 2327,
    "696d656e74": 2328,
    "20766f63": 2329,
    "6b61": 2330,
    "20323030": 2331,
    "61706572": 2332,
    "20496e64": 2333,
    "20eca7": 2334,
    "686f72": 2335,
    "8db0": 2336,
    "6a6f72": 2337,
    "d0b8d0bb": 2338,
    "20737175": 2339,
    "4155": 2340,
    "61726e696e67": 2341,
    "20d0b3": 2342,
    "4953": 2343,
    "20d0bb": 2344,
    "d0b5d0b9": 2345,
    "796573": 2346,
    "e585": 2347,
    "20d092": 2348,
    "206f726967": 2349,
    "d0bed0b3d0be": 2350,
    "2061736b6564": 2351,
    "696c74": 2352,
    "d0bed0b3": 2353,
    "20636f6e74696e7565": 2354,
    "20ec98": 2355,
    "72616d": 2356,
    "206f7468657273": 2357,
    "4553": 2358,
    "6f686e": 2359,
    "206c6179": 2360,
    "206261736564": 2361,
    "207075": 2362,
    "2061707065": 2363,
    "206c696d": 2364,
    "2070726f70": 2365,
    "80eb": 2366,
    "6d696e": 2367,
    "20686f74": 2368,
    "204c61": 2369,
    "2066617374": 2370,
    "2070726f74656374": 2371,
    "20616d6f756e74": 2372,
    "20617175": 2373,
    "2066756e64": 2374,
    "20637573746f6d": 2375,
    "2063756c74": 2376,
    "2068616e6473": 2377,
    "20686176656e": 2378,
    "20617564": 2379,
    "206f757473696465": 2380,
    "204166746572": 2381,
    "617073": 2382,
    "20616e696d": 2383,
    "706c6f79": 2384,
    "20686174": 2385,
    "204669727374": 2386,
    "207472656174": 2387,
    "206570": 2388,
    "206d61746572": 2389,
    "206275696c64696e67": 2390,
    "20ebb0": 2391,
    "e590": 2392,
    "ec849c": 2393,
    "7a61": 2394,
    "756768746572": 2395,
    "205065": 2396,
    "6e6579": 2397,
    "65746572": 2398,
    "61746963": 2399,
    "2065647563": 2400,
    "eab8b0": 2401,
    "206d6f76": 2402,
    "93a4": 2403,
    "616d61": 2404,
    "726174696f6e": 2405,
    "20736e": 2406,
    "d988": 2407,
    "2073756d": 2408,
    "2070686f74": 2409,
    "20d09d": 2410,
    "202e": 2411,
    "e69c89": 2412,
    "2066696e697368": 2413,
    "697474696e67": 2414,
    "e5ae": 2415,
    "206c61726765": 2416,
    "20ec96": 2417,
    "207768697465": 2418,
    "617261": 2419,
    "206d616973": 2420,
    "204869": 2421,
    "2064616d": 2422,
    "20d8a7d984": 2423,
    "20626f78": 2424,
    "2048656c6c6f": 2425,
    "20736c65": 2426,
    "206f7074": 2427,
    "72696564": 2428,
    "a5bc": 2429,
    "206163746976": 2430,
    "206ec3a36f": 2431,
    "20436f6d": 2432,
    "20706c6179696e67": 2433,
    "5468": 2434,
    "20617661696c61626c65": 2435,
    "20706f7274": 2436,
    "e588": 2437,
    "204168": 2438,
    "206c6173": 2439,
    "206561726c79": 2440,
    "20776f6e646572": 2441,
    "b1b0": 2442,
    "203138": 2443,
    "63756c": 2444,
    "2066756e6374696f6e": 2445,
    "206d6f726e696e67": 2446,
    "6c6c65": 2447,
    "69656e7473": 2448,
    "7578": 2449,
    "20636972": 2450,
    "6974696f6e73": 2451,
    "2064656570": 2452,
    "20706f6c6974": 2453,
    "796f72": 2454,
    "6d70": 2455,
    "616b696e67": 2456,
    "8ceb": 2457,
    "204d616e": 2458,
    "206d696c6c696f6e": 2459,
    "202f": 2460,
    "20696e6469766964": 2461,
    "2070616e": 2462,
    "20676f7665726e6d656e74": 2463,
    "207772697465": 2464,
    "20546f64": 2465,
    "616d656e74": 2466,
    "20cf": 2467,
    "2077696e64": 2468,
    "20456e67": 2469,
    "6368656e": 2470,
    "5768": 2471,
    "ec9c": 2472,
    "206964656e74": 2473,
    "e381a7": 2474,
    "76656e74": 2475,
    "75726368": 2476,
    "206879": 2477,
    "207961": 2478,
    "2074726164": 2479,
    "2072656c6174696f6e73686970": 2480,
    "c3ba": 2481,
    "20646f75": 2482,
    "4f52": 2483,
    "20737765": 2484,
    "206e6567": 2485,
    "696e6174696f6e": 2486,
    "2074657874": 2487,
    "697070": 2488,
    "2066696e65": 2489,
    "c3a173": 2490,
    "204472": 2491,
    "20436f6d65": 2492,
    "206d6f6e746873": 2493,
    "2c22": 2494,
    "d0b5d0bdd0b8": 2495,
    "20686f757273": 2496,
    "20706f64": 2497,
    "697274": 2498,
    "20696e766f6c": 2499,
    "20636f6c6c656374": 2500,
    "20617566": 2501,
    "207061": 2502,
    "20686973746f7279": 2503,
    "6d62": 2504,
    "696679": 2505,
    "203f": 2506,
    "2062656c6f77": 2507,
    "6173757265": 2508,
    "616279": 2509,
    "206c616e6775": 2510,
    "20616e74": 2511,
    "20636f6d62": 2512,
    "61746f": 2513,
    "206578697374": 2514,
    "20eb8b": 2515,
    "2074616b6573": 2516,
    "20636861726163746572": 2517,
    "616666": 2518,
    "206669656c64": 2519,
    "2065636f6e6f6d": 2520,
    "696566": 2521,
    "207069656365": 2522,
    "e59c": 2523,
    "207265616368": 2524,
    "20eab2": 2525,
    "6f6e79": 2526,
    "206d6174657269616c": 2527,
    "20646967": 2528,
    "2070687973": 2529,
    "20696d70726f": 2530,
    "2073696d696c6172": 2531,
    "4943": 2532,
    "206e6574": 2533,
    "796e": 2534,
    "20706f736974696f6e": 2535,
    "c39f": 2536,
    "2062656e65": 2537,
    "72656164": 2538,
    "206c6561726e696e67": 2539,
    "756d65": 2540,
    "20636c65616e": 2541,
    "d182d0bed180": 2542,
    "20636f6f6b": 2543,
    "207365656d73": 2544,
    "206f6c": 2545,
    "205553": 2546,
    "204a6573": 2547,
    "20e0ae": 2548,
    "656e7469616c": 2549,
    "6976657273697479": 2550,
    "616379": 2551,
    "20d18f": 2552,
    "6f6c7574656c79": 2553,
    "72656374": 2554,
    "20506c65617365": 2555,
    "20726570726573": 2556,
    "20746f756368": 2557,
    "6d656e": 2558,
    "20d0b0": 2559,
    "69c3b36e": 2560,
    "205468616e6b73": 2561,
    "20616e67": 2562,
    "206d616a6f72": 2563,
    "20697473656c66": 2564,
    "696c6c73": 2565,
    "222c": 2566,
    "69616e73": 2567,
    "2073637265656e": 2568,
    "20686f72": 2569,
    "206b6e6f776e": 2570,
    "20656e7669726f6e": 2571,
    "2066696e616c": 2572,
    "20666967757265": 2573,
    "205477": 2574,
    "2065796573": 2575,
    "20696d6167": 2576,
    "20736565696e67": 2577,
    "2068616972": 2578,
    "72656d": 2579,
    "206170706c6963": 2580,
    "656e6473": 2581,
    "707574": 2582,
    "206e657773": 2583,
    "20636f6d706c6574656c79": 2584,
    "75676873": 2585,
    "206b6e6577": 2586,
    "6966696564": 2587,
    "204a65": 2588,
    "20446964": 2589,
    "20736974756174696f6e": 2590,
    "20666c6f": 2591,
    "6d73": 2592,
    "2070686f6e65": 2593,
    "2062616c6c": 2594,
    "646f": 2595,
    "20706172656e74": 2596,
    "20736f727279": 2597,
    "757279": 2598,
    "d0b8d0bd": 2599,
    "697073": 2600,
    "d0b0d0b4": 2601,
    "20696e7374656164": 2602,
    "2068756765": 2603,
    "207475": 2604,
    "20e381": 2605,
    "204772": 2606,
    "2064657461696c": 2607,
    "20d09f": 2608,
    "20696e646976696475616c": 2609,
    "2066697265": 2610,
    "20636c6f73": 2611,
    "20776572": 2612,
    "756e65": 2613,
    "2072756e6e696e67": 2614,
    "20636f6e76657273": 2615,
    "207265636f6d6d": 2616,
    "20636f6d6f": 2617,
    "20736f6d65626f6479": 2618,
    "204a6f686e": 2619,
    "20ec9db4": 2620,
    "204f7572": 2621,
    "706c6573": 2622,
    "205068": 2623,
    "20616e616c": 2624,
    "203530": 2625,
    "206f66666572": 2626,
    "203c": 2627,
    "6974696f6e616c": 2628,
    "67657374": 2629,
    "20766f7573": 2630,
    "6c6574": 2631,
    "696379": 2632,
    "206665656c696e67": 2633,
    "4c45": 2634,
    "726f73": 2635,
    "207468697264": 2636,
    "d0bed0ba": 2637,
    "20736572696573": 2638,
    "20416e79": 2639,
    "69736564": 2640,
    "6f6c64": 2641,
    "2064726177": 2642,
    "2073657276696365": 2643,
    "2063616e6e6f74": 2644,
    "62616c": 2645,
    "e38186": 2646,
    "206c6976696e67": 2647,
    "c4b16d": 2648,
    "20646966666572656e6365": 2649,
    "206f70706f7274756e697479": 2650,
    "206e656172": 2651,
    "6f727468": 2652,
    "6b656e": 2653,
    "206c6f63616c": 2654,
    "d8aa": 2655,
    "20436f6e": 2656,
    "206f626a656374": 2657,
    "2064617373": 2658,
    "e38199": 2659,
    "90d7": 2660,
    "20717569636b6c79": 2661,
    "72617068": 2662,
    "20697373756573": 2663,
    "e98099": 2664,
    "20416d65726963616e": 2665,
    "2070726570": 2666,
    "656e636573": 2667,
    "2070726f66657373": 2668,
    "6c6c696e67": 2669,
    "6f66": 2670,
    "20666f6f74": 2671,
    "627265": 2672,
    "20757375616c6c79": 2673,
    "2067656e6572616c": 2674,
    "6461": 2675,
    "616e636573": 2676,
    "2064657374": 2677,
    "206f6363": 2678,
    "206d656d62657273": 2679,
    "2064616e73": 2680,
    "20657175616c": 2681,
    "7a74": 2682,
    "206265636f6d": 2683,
    "206d6f76696e67": 2684,
    "207370656369666963": 2685,
    "c3ad61": 2686,
    "20667572": 2687,
    "206e6563657373": 2688,
    "20636f6d6d6f6e": 2689,
    "2061747461636b": 2690,
    "20d18dd182d0be": 2691,
    "20546f646179": 2692,
    "20756e73": 2693,
    "204775": 2694,
    "696f64": 2695,
    "206163636f756e74": 2696,
    "206772616e64": 2697,
    "2073656c66": 2698,
    "20456c": 2699,
    "2074617374": 2700,
    "20636f6e74656e74": 2701,
    "206375": 2702,
    "84eb": 2703,
    "204d61796265": 2704,
    "204a65737573": 2705,
    "6f726573": 2706,
    "706f7274": 2707,
    "a9b4": 2708,
    "206769766573": 2709,
    "206e6f726d616c": 2710,
    "d180d183": 2711,
    "20696d70616374": 2712,
    "c3a472": 2713,
    "2064696573": 2714,
    "206c6162": 2715,
    "7368": 2716,
    "696f73": 2717,
    "2050726573": 2718,
    "20556e64": 2719,
    "204f66": 2720,
    "2066696e616c6c79": 2721,
    "20646f6c6c": 2722,
    "20766f63c3aa": 2723,
    "706c79": 2724,
    "204167": 2725,
    "2074616b656e": 2726,
    "2067726f756e64": 2727,
    "666f7274": 2728,
    "2067617665": 2729,
    "20496e7374": 2730,
    "206c6f7374": 2731,
    "20776f726b6564": 2732,
    "206c69746572": 2733,
    "206973737565": 2734,
    "20696e64757374": 2735,
    "2072657475726e": 2736,
    "2068617070656e696e67": 2737,
    "2077616e7473": 2738,
    "d0b8d0b2": 2739,
    "2070726f626c656d73": 2740,
    "20436172": 2741,
    "9dbc": 2742,
    "20416c736f": 2743,
    "2073697a65": 2744,
    "206f6276696f75736c79": 2745,
    "205375": 2746,
    "205363": 2747,
    "207265636f6d6d656e64": 2748,
    "6f7572636573": 2749,
    "6173746963": 2750,
    "2e2e2e2e": 2751,
    "206d69": 2752,
    "6c696572": 2753,
    "204576656e": 2754,
    "636961": 2755,
    "20687572": 2756,
    "7661": 2757,
    "206d617373": 2758,
    "20776f756c646e": 2759,
    "756e74": 2760,
    "636b73": 2761,
    "2066656c74": 2762,
    "6f7370": 2763,
    "6c69676874": 2764,
    "d0bed0bbd18c": 2765,
    "6e6965": 2766,
    "20626f74746f6d": 2767,
    "20d0b1d18b": 2768,
    "6f726564": 2769,
    "69736f6e": 2770,
    "2067726164": 2771,
    "20756d61": 2772,
    "207661": 2773,
    "20ec82": 2774,
    "72657373696f6e": 2775,
    "756c6174696f6e": 2776,
    "4944": 2777,
    "6964656e6365": 2778,
    "20627572": 2779,
    "20676f6e65": 2780,
    "6c75": 2781,
    "ec96b4ec": 2782,
    "2072656475": 2783,
    "206a61": 2784,
    "ec9d98": 2785,
    "697461": 2786,
    "20736f6674": 2787,
    "20c3a761": 2788,
    "69636f": 2789,
    "6572616c": 2790,
    "c3b1": 2791,
    "6166": 2792,
    "20706f696e7473": 2793,
    "6775": 2794,
    "2064c3a9": 2795,
    "617074": 2796,
    "6178": 2797,
    "20416c7269676874": 2798,
    "2063616d657261": 2799,
    "20616368": 2800,
    "20d0bfd0be": 2801,
    "207365766572": 2802,
    "3530": 2803,
    "20736965": 2804,
    "cf81": 2805,
    "206d616c": 2806,
    "20636f6d707574": 2807,
    "206d6964646c65": 2808,
    "20636f756c646e": 2809,
    "6d696e67": 2810,
    "20ec8b": 2811,
    "20486973": 2812,
    "2067616d6573": 2813,
    "20696e74726f6475": 2814,
    "2063656c6c": 2815,
    "706f72": 2816,
    "20736c656570": 2817,
    "20ebb3": 2818,
    "6964696e67": 2819,
    "206f75": 2820,
    "20646567": 2821,
    "206472696e6b": 2822,
    "20656e7669726f6e6d656e74": 2823,
    "20556e69746564": 2824,
    "2074616c6b6564": 2825,
    "2063686f6f7365": 2826,
    "206a6f7572": 2827,
    "656765": 2828,
    "204d696e": 2829,
    "20696e7465": 2830,
    "20726174686572": 2831,
    "206f66666963": 2832,
    "d0bad0b0": 2833,
    "616368696e67": 2834,
    "206d656e74696f6e6564": 2835,
    "2066696c6c": 2836,
    "20747261636b": 2837,
    "206e6965": 2838,
    "207574": 2839,
    "20d0b2d18b": 2840,
    "6962696c697479": 2841,
    "20766163": 2842,
    "20726164": 2843,
    "207061636b": 2844,
    "2073656e64": 2845,
    "20446173": 2846,
    "204162": 2847,
    "20656e67696e65": 2848,
    "e38197": 2849,
    "20636f6d706574": 2850,
    "c3b4": 2851,
    "20d0b2d181": 2852,
    "20646f6f72": 2853,
    "206c6f6e676572": 2854,
    "e5b08d": 2855,
    "206c616e6775616765": 2856,
    "206578747261": 2857,
    "706c6179": 2858,
    "2077656273": 2859,
    "756d62": 2860,
    "726f6f6d": 2861,
    "e79c": 2862,
    "20626567696e6e696e67": 2863,
    "207265666572": 2864,
    "414d": 2865,
    "6e656e": 2866,
    "6967686572": 2867,
    "66616365": 2868,
    "657263": 2869,
    "20666f72676574": 2870,
    "20636f6d6d656e74": 2871,
    "d0b5d0ba": 2872,
    "d0bbd18f": 2873,
    "726f72": 2874,
    "c5bc65": 2875,
    "204765": 2876,
    "206461726b": 2877,
    "20616e796f6e65": 2878,
    "616e7465": 2879,
    "676573": 2880,
    "ec8ab5": 2881,
    "d191": 2882,
    "626564": 2883,
    "6a65": 2884,
    "72756374757265": 2885,
    "207072696d": 2886,
    "696461": 2887,
    "e8a6": 2888,
    "e381be": 2889,
    "206d6978": 2890,
    "207374617274696e67": 2891,
    "20ec9db4eb": 2892,
    "2070726f76696465": 2893,
    "616374696f6e": 2894,
    "206d6f74686572": 2895,
    "20706572696f64": 2896,
    "20737469636b": 2897,
    "20596f7554": 2898,
    "20746563686e6f6c6f6779": 2899,
    "eab9": 2900,
    "20626564": 2901,
    "20676976696e67": 2902,
    "206578706c61696e": 2903,
    "7a656e": 2904,
    "696d617465": 2905,
    "20726570726573656e74": 2906,
    "6c6f6164": 2907,
    "20486f7765766572": 2908,
    "206c69766573": 2909,
    "757468": 2910,
    "69726974": 2911,
    "6f676e": 2912,
    "206c696b": 2913,
    "20726573706f6e73": 2914,
    "2070726976": 2915,
    "20746f6d": 2916,
    "c3a7c3a36f": 2917,
    "69616d": 2918,
    "2065786369746564": 2919,
    "2063617264": 2920,
    "67726f756e64": 2921,
    "20d794": 2922,
    "2073656e73": 2923,
    "207465616368": 2924,
    "69646f": 2925,
    "686f64": 2926,
    "2065706973": 2927,
    "2077656c636f6d65": 2928,
    "2077616c6c": 2929,
    "e4b9": 2930,
    "206368616e6365": 2931,
    "68656e": 2932,
    "20d0a1": 2933,
    "20c491": 2934,
    "2073696d706c79": 2935,
    "20d182d0b0d0ba": 2936,
    "72696e67": 2937,
    "6a61": 2938,
    "626f6f6b": 2939,
    "207365766572616c": 2940,
    "737465": 2941,
    "2063726561746564": 2942,
    "20d0bed182": 2943,
    "2070757368": 2944,
    "3d3d": 2945,
    "20686967686572": 2946,
    "7566": 2947,
    "6f75726365": 2948,
    "6f6b65": 2949,
    "206f6e6c696e65": 2950,
    "2072656c65": 2951,
    "20746f6e": 2952,
    "656e73697665": 2953,
    "206661766f72697465": 2954,
    "d183d0b4": 2955,
    "206c6f6f6b6564": 2956,
    "20766f6e": 2957,
    "e28094": 2958,
    "2066c3bc72": 2959,
    "20627574746f6e": 2960,
    "2062696c6c": 2961,
    "206368616e676573": 2962,
    "2122": 2963,
    "20736c6f77": 2964,
    "61626c6573": 2965,
    "206465617468": 2966,
    "616e6473": 2967,
    "61746567": 2968,
    "207468656d73656c766573": 2969,
    "e381a3": 2970,
    "20636f70": 2971,
    "e381ae": 2972,
    "20706572736f6e616c": 2973,
    "756768696e67": 2974,
    "203131": 2975,
    "676172": 2976,
    "61646573": 2977,
    "206e6565646564": 2978,
    "207374756479": 2979,
    "61676564": 2980,
    "d181d182d0b2": 2981,
    "696e6f": 2982,
    "2064697363": 2983,
    "6b69": 2984,
    "2061646472657373": 2985,
    "d7a8": 2986,
    "697474656e": 2987,
    "65736f6d65": 2988,
    "20d0b6": 2989,
    "a4eb": 2990,
    "757261": 2991,
    "206d75": 2992,
    "20636f6e74696e75": 2993,
    "666f72": 2994,
    "206d61746368": 2995,
    "e381a6": 2996,
    "207374726169676874": 2997,
    "90eb": 2998,
    "6e657273": 2999,
    "20646f67": 3000,
    "20646562": 3001,
    "20434f": 3002,
    "206f73": 3003,
    "676564": 3004,
    "63616d65": 3005,
    "20636f7272656374": 3006,
    "65747465": 3007,
    "20536565": 3008,
    "20696e636c7564696e67": 3009,
    "204575726f": 3010,
    "6573746572": 3011,
    "206a756d70": 3012,
    "205768696368": 3013,
    "20d0bad0b0d0ba": 3014,
    "736f6e": 3015,
    "7961": 3016,
    "494e47": 3017,
    "2065696e65": 3018,
    "6f7368": 3019,
    "656e6379": 3020,
    "206d65646961": 3021,
    "20737562736372696265": 3022,
    "e982": 3023,
    "207072696e": 3024,
    "20686162": 3025,
    "20506572": 3026,
    "20576173": 3027,
    "2070616765": 3028,
    "69746f72": 3029,
    "20746f7761726473": 3030,
    "207472696564": 3031,
    "656e6765": 3032,
    "6172746d656e74": 3033,
    "2076617269": 3034,
    "207061706572": 3035,
    "2070696374757265": 3036,
    "2076657273696f6e": 3037,
    "2062726f75676874": 3038,
    "77617265": 3039,
    "20537461746573": 3040,
    "2073696368": 3041,
    "6c65646765": 3042,
    "2070657263656e74": 3043,
    "20676f64": 3044,
    "6563": 3045,
    "20436f6d6d": 3046,
    "2064656369646564": 3047,
    "2073656c656374": 3048,
    "ed959c": 3049,
    "292e": 3050,
    "7572697479": 3051,
    "2066757274686572": 3052,
    "20636f6d6d656e7473": 3053,
    "6c656d656e74": 3054,
    "20647265616d": 3055,
    "2063656e746572": 3056,
    "6d69": 3057,
    "20636173": 3058,
    "20776f6d616e": 3059,
    "20726f6164": 3060,
    "206661696c": 3061,
    "20626563616d65": 3062,
    "6c7573": 3063,
    "696c6974696573": 3064,
    "e381af": 3065,
    "20436f": 3066,
    "206d616e616765": 3067,
    "207265636f676e": 3068,
    "20616374696f6e": 3069,
    "2062656e6566": 3070,
    "206561726c696572": 3071,
    "d79c": 3072,
    "207370656564": 3073,
    "206d656e74": 3074,
    "20736f6369": 3075,
    "2073686f6f74": 3076,
    "7569": 3077,
    "20c3a4": 3078,
    "206170706c79": 3079,
    "766f": 3080,
    "78696d": 3081,
    "206361757365": 3082,
    "207375727072": 3083,
    "20686162656e": 3084,
    "4449": 3085,
    "20666174686572": 3086,
    "204e657874": 3087,
    "20596f7554756265": 3088,
    "20636f6465": 3089,
    "20726f6c65": 3090,
    "6772657373": 3091,
    "20677265656e": 3092,
    "657474": 3093,
    "206275696c74": 3094,
    "20666c6f77": 3095,
    "2062617365": 3096,
    "20747261696e696e67": 3097,
    "20726f756e64": 3098,
    "2057696c6c": 3099,
    "2070617468": 3100,
    "20526f": 3101,
    "20696e7465726573746564": 3102,
    "ec96b4": 3103,
    "2072657370656374": 3104,
    "206368616e676564": 3105,
    "697373696f6e": 3106,
    "2073747564656e74": 3107,
    "6f6772617068": 3108,
    "20617070726f616368": 3109,
    "2073686f7773": 3110,
    "e5b0b1": 3111,
    "20746172": 3112,
    "2063726974": 3113,
    "20676c6f": 3114,
    "ec8ab5eb8b88eb8ba4": 3115,
    "2064656164": 3116,
    "20507265736964656e74": 3117,
    "2074686f7573": 3118,
    "2062616c": 3119,
    "73746572": 3120,
    "6578": 3121,
    "206162736f6c7574656c79": 3122,
    "206d6963": 3123,
    "207072616374696365": 3124,
    "207175616c697479": 3125,
    "206c6f776572": 3126,
    "6f676c65": 3127,
    "207365706172": 3128,
    "62616c6c": 3129,
    "6d656469": 3130,
    "20726576696577": 3131,
    "20417070": 3132,
    "206f6b": 3133,
    "e2808b": 3134,
    "20657870657269656e": 3135,
    "20636f6e6365726e": 3136,
    "656e7469616c6c79": 3137,
    "6d6f7265": 3138,
    "204a6f": 3139,
    "6170616e": 3140,
    "20496368": 3141,
    "6973746963": 3142,
    "2066616972": 3143,
    "2077656273697465": 3144,
    "69726573": 3145,
    "204279": 3146,
    "2074726176656c": 3147,
    "207269736b": 3148,
    "206d6972": 3149,
    "20626f617264": 3150,
    "2073656e": 3151,
    "20706172656e7473": 3152,
    "20576f77": 3153,
    "2066656564": 3154,
    "2073617665": 3155,
    "20736572696f7573": 3156,
    "20696e6974": 3157,
    "454c": 3158,
    "756e64726564": 3159,
    "4153": 3160,
    "2076616e": 3161,
    "6f72726f77": 3162,
    "20776f727468": 3163,
    "20736561726368": 3164,
    "203136": 3165,
    "207061727473": 3166,
    "d181d182d18c": 3167,
    "20636f6d70616e": 3168,
    "206d6f766965": 3169,
    "206d6574686f64": 3170,
    "20696c6c": 3171,
    "2077697368": 3172,
    "6479": 3173,
    "206974656d": 3174,
    "206d696e7573": 3175,
    "616e676572": 3176,
    "20766f696365": 3177,
    "20736b696e": 3178,
    "206172656173": 3179,
    "206569676874": 3180,
    "206f6273": 3181,
    "202c": 3182,
    "d0b0d0b9": 3183,
    "206f696c": 3184,
    "206379": 3185,
    "2062616279": 3186,
    "7379": 3187,
    "20656d706c6f79": 3188,
    "204b65": 3189,
    "20706c61636573": 3190,
    "20666978": 3191,
    "20657374c3a1": 3192,
    "e381a8": 3193,
    "69766564": 3194,
    "206c6f7473": 3195,
    "20736561736f6e": 3196,
    "756e6b": 3197,
    "616c74": 3198,
    "207461626c65": 3199,
    "20d0a2": 3200,
    "c3a2": 3201,
    "20617474656e74696f6e": 3202,
    "e381aa": 3203,
    "20486572": 3204,
    "20616765": 3205,
    "20707261": 3206,
    "6261636b": 3207,
    "63696c": 3208,
    "206e6574776f726b": 3209,
    "726974": 3210,
    "20646f63": 3211,
    "206172656e": 3212,
    "6967656e": 3213,
    "20eb84": 3214,
    "d8af": 3215,
    "656e646572": 3216,
    "20746f74616c": 3217,
    "207072696365": 3218,
    "206372617a79": 3219,
    "ec9a": 3220,
    "697175": 3221,
    "74686f756768": 3222,
    "596f75": 3223,
    "d987": 3224,
    "e38293": 3225,
    "cf85": 3226,
    "20736174": 3227,
    "206269": 3228,
    "20446965": 3229,
    "20736861": 3230,
    "207468616e6b73": 3231,
    "7568": 3232,
    "207374616765": 3233,
    "d0b0d0b6": 3234,
    "20466c": 3235,
    "206c656176": 3236,
    "20626f79": 3237,
    "206166": 3238,
    "c3b66e": 3239,
    "20476574": 3240,
    "20616363657074": 3241,
    "20656e746572": 3242,
    "20747572": 3243,
    "207369c499": 3244,
    "20686f6e657374": 3245,
    "e3808c": 3246,
    "2073616d": 3247,
    "207265706c": 3248,
    "67696e67": 3249,
    "20646576656c6f706d656e74": 3250,
    "20416374": 3251,
    "6f7261": 3252,
    "e3808d": 3253,
    "e4be": 3254,
    "206b6e6f7773": 3255,
    "20696d616765": 3256,
    "204c6f7264": 3257,
    "d0b8d182d18c": 3258,
    "207765656b73": 3259,
    "20736578": 3260,
    "94eb": 3261,
    "2068756e64726564": 3262,
    "20736f756e6473": 3263,
    "206c6561726e6564": 3264,
    "20627564": 3265,
    "20d181d182": 3266,
    "20696e63726564": 3267,
    "e299": 3268,
    "206e6f73": 3269,
    "2064726f70": 3270,
    "2062656e": 3271,
    "20d098": 3272,
    "2073616665": 3273,
    "617461": 3274,
    "206675636b": 3275,
    "736f6369": 3276,
    "2064616e": 3277,
    "2063726f7373": 3278,
    "3130": 3279,
    "6d6f": 3280,
    "76657274": 3281,
    "203137": 3282,
    "7a6965": 3283,
    "e595": 3284,
    "20646f6d": 3285,
    "20426f": 3286,
    "2073657474696e67": 3287,
    "20696e766f6c766564": 3288,
    "6172696c79": 3289,
    "2073696e64": 3290,
    "20737573": 3291,
    "20776f727279": 3292,
    "657468": 3293,
    "eab98c": 3294,
    "2073756e": 3295,
    "2068696572": 3296,
    "206365727461696e6c79": 3297,
    "6f756c": 3298,
    "6f727473": 3299,
    "204572": 3300,
    "20556d": 3301,
    "2063617573": 3302,
    "206e61747572616c": 3303,
    "20c3bc": 3304,
    "20637279": 3305,
    "20536563": 3306,
    "20736f6d": 3307,
    "e6b2": 3308,
    "20656475636174696f6e": 3309,
    "d0b0d0b5d182": 3310,
    "206d756c746970": 3311,
    "20616c6f6e65": 3312,
    "20657965": 3313,
    "2072617465": 3314,
    "204575726f7065": 3315,
    "e8bf": 3316,
    "6d6f6e": 3317,
    "20666974": 3318,
    "697a696e67": 3319,
    "70706564": 3320,
    "207072657373757265": 3321,
    "746865": 3322,
    "d0b8d181": 3323,
    "69746573": 3324,
    "204166": 3325,
    "72656369": 3326,
    "6174746c65": 3327,
    "207365727669636573": 3328,
    "20476f6f676c65": 3329,
    "e981": 3330,
    "206361736573": 3331,
    "206472697665": 3332,
    "206368616c6c656e67": 3333,
    "757a": 3334,
    "204d6f": 3335,
    "ec9cbceb": 3336,
    "76616c": 3337,
    "e5808b": 3338,
    "20666f6c": 3339,
    "20eca2": 3340,
    "66666963": 3341,
    "207261": 3342,
    "2073696e": 3343,
    "20626c7565": 3344,
    "20616666656374": 3345,
    "206d6973": 3346,
    "2073686f74": 3347,
    "20d0bed0b1": 3348,
    "6173696e67": 3349,
    "207369676e69666963": 3350,
    "20436865": 3351,
    "20eab3": 3352,
    "20706f736974697665": 3353,
    "eca3": 3354,
    "20776965": 3355,
    "203430": 3356,
    "6f7264696e67": 3357,
    "2046726f6d": 3358,
    "eab5": 3359,
    "206272616e64": 3360,
    "207472757374": 3361,
    "20706c65": 3362,
    "20636f6d6d756e6963": 3363,
    "20776569676874": 3364,
    "2061736b696e67": 3365,
    "20746178": 3366,
    "204a6170616e": 3367,
    "e3819f": 3368,
    "20ed9598": 3369,
    "6f7073": 3370,
    "cf82": 3371,
    "2070757474696e67": 3372,
    "20726f6c6c": 3373,
    "20416d6572696361": 3374,
    "726567": 3375,
    "9ed7": 3376,
    "617475726573": 3377,
    "656e73696f6e": 3378,
    "20536f6d6574": 3379,
    "206f726967696e616c": 3380,
    "70696e67": 3381,
    "20c59f": 3382,
    "2070726f6475637473": 3383,
    "e383bc": 3384,
    "20636f6e74616374": 3385,
    "6f6c7574696f6e": 3386,
    "20676f616c": 3387,
    "20706f77": 3388,
    "20706572666f726d616e6365": 3389,
    "20626c6f6f64": 3390,
    "61746f7273": 3391,
    "204d696368": 3392,
    "2074656d706572": 3393,
    "2044616e": 3394,
    "2073756767": 3395,
    "d182d0b8": 3396,
    "20696d6d": 3397,
    "206f6666696365": 3398,
    "2061727269": 3399,
    "20636f6d666f7274": 3400,
    "20d094": 3401,
    "2073756767657374": 3402,
    "20706c6174": 3403,
    "8298": 3404,
    "3139": 3405,
    "206f6d": 3406,
    "20736576656e": 3407,
    "2043656e74": 3408,
    "696c6c65": 3409,
    "20636f6e63657074": 3410,
    "20626167": 3411,
    "c3bc6e": 3412,
    "6976656c79": 3413,
    "20646976": 3414,
    "6d6f73": 3415,
    "e689": 3416,
    "206665656c73": 3417,
    "206972": 3418,
    "616b6573": 3419,
    "6c6579": 3420,
    "207061727469636970": 3421,
    "20d09a": 3422,
    "666c": 3423,
    "6a757374": 3424,
    "2073696c": 3425,
    "205061": 3426,
    "414c": 3427,
    "20676f747461": 3428,
    "2066616e": 3429,
    "206368616c6c656e6765": 3430,
    "20636f6d70616e696573": 3431,
    "2050656f706c65": 3432,
    "3c2f": 3433,
    "d0bed0b7": 3434,
    "2070656e": 3435,
    "6973696e67": 3436,
    "20617573": 3437,
    "656d6963": 3438,
    "616d656e7465": 3439,
    "206d656574696e67": 3440,
    "207669736974": 3441,
    "20737570706f736564": 3442,
    "204f6e6365": 3443,
    "d0b4d0b0": 3444,
    "6f726c64": 3445,
    "3330": 3446,
    "5553": 3447,
    "2076696f6c": 3448,
    "206e6f74696365": 3449,
    "20d090": 3450,
    "68616e": 3451,
    "706564": 3452,
    "ec98": 3453,
    "6868": 3454,
    "2074726f75": 3455,
    "206d696e757465": 3456,
    "20506172": 3457,
    "726179": 3458,
    "20746974": 3459,
    "20757064": 3460,
    "20626c6f636b": 3461,
    "20647565": 3462,
    "617572": 3463,
    "20666f726365": 3464,
    "20636f756e": 3465,
    "20e28094": 3466,
    "207479706573": 3467,
    "eba7": 3468,
    "206c617465": 3469,
    "20696d70726f7665": 3470,
    "20ec88": 3471,
    "20617665": 3472,
    "756c6573": 3473,
    "636c": 3474,
    "616d6564": 3475,
    "20617765736f6d65": 3476,
    "204f6b": 3477,
    "20766f74": 3478,
    "206d616368696e65": 3479,
    "20666f6c6c6f77696e67": 3480,
    "206d656173757265": 3481,
    "616369c3b36e": 3482,
    "75656c": 3483,
    "6368616e": 3484,
    "206162696c697479": 3485,
    "20746f7574": 3486,
    "206964656173": 3487,
    "20696e637265617365": 3488,
    "20656e73": 3489,
    "20d185": 3490,
    "20ebaa": 3491,
    "206a657374": 3492,
    "20d09c": 3493,
    "207472757468": 3494,
    "6879": 3495,
    "207370656e64": 3496,
    "20736369656e6365": 3497,
    "657465": 3498,
    "203134": 3499,
    "20657069736f6465": 3500,
    "20616c67": 3501,
    "656e646564": 3502,
    "e38193": 3503,
    "617269": 3504,
    "6c6c61": 3505,
    "2066697368": 3506,
    "207468726f77": 3507,
    "6d6974": 3508,
    "e5b9": 3509,
    "2063697263": 3510,
    "2043616c": 3511,
    "20746f7572": 3512,
    "20646972656374696f6e": 3513,
    "206e6f6368": 3514,
    "d0b5d0b2": 3515,
    "c3a96e": 3516,
    "20636f756e7472696573": 3517,
    "20696e647573747279": 3518,
    "696e79": 3519,
    "69636c65": 3520,
    "2066656574": 3521,
    "4974": 3522,
    "206c656164657273": 3523,
    "65747a74": 3524,
    "207374616666": 3525,
    "e794": 3526,
    "2070757270": 3527,
    "69746f": 3528,
    "3f21": 3529,
    "204a61": 3530,
    "2073746f7265": 3531,
    "65746963": 3532,
    "204368696e61": 3533,
    "20eb90": 3534,
    "20556e6976657273697479": 3535,
    "2023": 3536,
    "206465636973696f6e": 3537,
    "206163686965": 3538,
    "2061637475616c": 3539,
    "756c79": 3540,
    "2073656374696f6e": 3541,
    "20726573756c7473": 3542,
    "2073746172": 3543,
    "206d697374": 3544,
    "69626c79": 3545,
    "20646164": 3546,
    "206e756d62657273": 3547,
    "6f6d62": 3548,
    "e8aa": 3549,
    "20537065": 3550,
    "206d6572": 3551,
    "203235": 3552,
    "206175746f6d": 3553,
    "20636f6c64": 3554,
    "d8a8": 3555,
    "849c": 3556,
    "61676572": 3557,
    "205456": 3558,
    "20536965": 3559,
    "2048617665": 3560,
    "20c5bc65": 3561,
    "756767": 3562,
    "61696e6564": 3563,
    "2075706f6e": 3564,
    "206c6f67": 3565,
    "20636f6d706c657465": 3566,
    "20627261696e": 3567,
    "6167696e67": 3568,
    "204d7573": 3569,
    "6f766572": 3570,
    "20656173696572": 3571,
    "20696e74656772": 3572,
    "206dc3a173": 3573,
    "207475726e6564": 3574,
    "2073747269": 3575,
    "6976616c": 3576,
    "2068656176": 3577,
    "205448": 3578,
    "2077726974696e67": 3579,
    "d180d0b0": 3580,
    "e59ca8": 3581,
    "e5a4a7": 3582,
    "20636c61": 3583,
    "64696e67": 3584,
    "2074656c6c696e67": 3585,
    "d0b8d0b4": 3586,
    "696361746564": 3587,
    "e4bba5": 3588,
    "61636874": 3589,
    "e38182": 3590,
    "68617073": 3591,
    "20537465": 3592,
    "207265736f7572636573": 3593,
    "2064616e6e": 3594,
    "207061727479": 3595,
    "20cf84": 3596,
    "20736166": 3597,
    "69736573": 3598,
    "747265": 3599,
    "6f696e74": 3600,
    "206b6e6f776c65646765": 3601,
    "20616e796d6f7265": 3602,
    "20666c79": 3603,
    "206d61696e74": 3604,
    "d0b8d0ba": 3605,
    "e591": 3606,
    "2073656c6c": 3607,
    "6c6175676873": 3608,
    "20596f726b": 3609,
    "206269656e": 3610,
    "206f64": 3611,
    "20656173696c79": 3612,
    "2072616e6765": 3613,
    "206f7074696f6e": 3614,
    "d8b9": 3615,
    "2061707072656369": 3616,
    "6f6372": 3617,
    "2064657465726d": 3618,
    "d184": 3619,
    "206d65616e696e67": 3620,
    "2073697465": 3621,
    "20646973636f": 3622,
    "766572616765": 3623,
    "206c6f7365": 3624,
    "20696e7374616c6c": 3625,
    "20656d6f74": 3626,
    "616e746c79": 3627,
    "c3a474": 3628,
    "2074616d62": 3629,
    "20576172": 3630,
    "20486f": 3631,
    "2047656e": 3632,
    "656d79": 3633,
    "d0b5d0b7": 3634,
    "20506f6c": 3635,
    "206d657373616765": 3636,
    "206e6f7465": 3637,
    "8c80": 3638,
    "20686574": 3639,
    "20696d6d656469": 3640,
    "2061766f": 3641,
    "20626f6f6b73": 3642,
    "206265636f6d6573": 3643,
    "72657368": 3644,
    "c3a873": 3645,
    "61736f6e73": 3646,
    "2068696d73656c66": 3647,
    "757473": 3648,
    "206a75": 3649,
    "206177617265": 3650,
    "2072657175697265": 3651,
    "2073797374656d73": 3652,
    "20486172": 3653,
    "20616d6f6e67": 3654,
    "20686f6d": 3655,
    "206272656174": 3656,
    "207765697264": 3657,
    "20ebb6": 3658,
    "cebb": 3659,
    "d8a9": 3660,
    "696666": 3661,
    "6f72696e67": 3662,
    "20706c6174666f726d": 3663,
    "2054616b65": 3664,
    "2068656c7073": 3665,
    "7574696f6e73": 3666,
    "20666f7267": 3667,
    "206c75636b": 3668,
    "20456e676c697368": 3669,
    "20776562": 3670,
    "206e65676174697665": 3671,
    "20747574": 3672,
    "2061626f7665": 3673,
    "6e677468": 3674,
    "20eab1b0": 3675,
    "2073746f72696573": 3676,
    "206c6f6164": 3677,
    "206261636b67726f756e64": 3678,
    "20737769746368": 3679,
    "6761": 3680,
    "207072696e6369": 3681,
    "2066696e616e": 3682,
    "20766172696f7573": 3683,
    "206cc3a0": 3684,
    "206b696e6473": 3685,
    "61696e696e67": 3686,
    "206e6174757265": 3687,
    "20d09e": 3688,
    "637a": 3689,
    "2070726179": 3690,
    "20676172": 3691,
    "69726d": 3692,
    "2026": 3693,
    "20ec83": 3694,
    "6e73": 3695,
    "20526570": 3696,
    "204665": 3697,
    "20726576": 3698,
    "72616e64": 3699,
    "206c696b656c79": 3700,
    "20756e6465727374616e64696e67": 3701,
    "c4b172": 3702,
    "e3818b": 3703,
    "2066616c": 3704,
    "203133": 3705,
    "d186d0b8": 3706,
    "20737564": 3707,
    "2062726f74686572": 3708,
    "20706c616e74": 3709,
    "207468726f7567686f7574": 3710,
    "77697365": 3711,
    "707265": 3712,
    "2063756c74757265": 3713,
    "20d985": 3714,
    "20776f6e64657266756c": 3715,
    "206168": 3716,
    "70706572": 3717,
    "20736f6c64": 3718,
    "20737461727473": 3719,
    "207772697474656e": 3720,
    "ceaf": 3721,
    "6e69": 3722,
    "20d794d7": 3723,
    "20446176": 3724,
    "20756c74": 3725,
    "2061726d": 3726,
    "20726f636b": 3727,
    "2077656172": 3728,
    "eb8db0": 3729,
    "616e6f": 3730,
    "726167": 3731,
    "20737175617265": 3732,
    "d0b0d0bdd0b8": 3733,
    "63617374": 3734,
    "6c656272": 3735,
    "206c69746572616c6c79": 3736,
    "20706c61796564": 3737,
    "2068656174": 3738,
    "6f6e7365": 3739,
    "72696374": 3740,
    "20696e7370": 3741,
    "696473": 3742,
    "20706f70756c6172": 3743,
    "eb8f84": 3744,
    "206361746368": 3745,
    "206d6f756e74": 3746,
    "206a7564": 3747,
    "57686174": 3748,
    "d0b5d0b1": 3749,
    "5241": 3750,
    "617564": 3751,
    "d0bad0be": 3752,
    "2073757266616365": 3753,
    "20636f6e76": 3754,
    "20706965636573": 3755,
    "4f68": 3756,
    "e680": 3757,
    "207374796c65": 3758,
    "7070696e67": 3759,
    "2072656164696e67": 3760,
    "20636f6e766572736174696f6e": 3761,
    "d0bed0bf": 3762,
    "e4be86": 3763,
    "20416761696e": 3764,
    "2062616e6b": 3765,
    "74696d65": 3766,
    "d183d182": 3767,
    "65727665": 3768,
    "204772656174": 3769,
    "2063617074": 3770,
    "d0b0d0b1": 3771,
    "617973": 3772,
    "2046696e": 3773,
    "696669636174696f6e": 3774,
    "20c3a472": 3775,
    "d0b0d18e": 3776,
    "20656767": 3777,
    "2057656c": 3778,
    "20746172676574": 3779,
    "756c61": 3780,
    "63686573": 3781,
    "616e69": 3782,
    "4f4f": 3783,
    "6963696f7573": 3784,
    "6e6f77": 3785,
    "cf83": 3786,
    "626f617264": 3787,
    "2067656e7465": 3788,
    "2064726f": 3789,
    "204574": 3790,
    "2064696e": 3791,
    "20636f73": 3792,
    "20617574686f72": 3793,
    "d8b3": 3794,
    "206f6368": 3795,
    "20656d61696c": 3796,
    "20737069726974": 3797,
    "2073697474696e67": 3798,
    "6d6173": 3799,
    "20737472656e677468": 3800,
    "20626967676572": 3801,
    "2057616974": 3802,
    "206d6174": 3803,
    "20706f6c696365": 3804,
    "726573736564": 3805,
    "2077616974696e67": 3806,
    "697368696e67": 3807,
    "20646f6c6c617273": 3808,
    "686f6f64": 3809,
    "7373": 3810,
    "20696d6167696e65": 3811,
    "696e69": 3812,
    "206d6573": 3813,
    "2064697365": 3814,
    "69646765": 3815,
    "61626f72": 3816,
    "20706574": 3817,
    "20686f70": 3818,
    "204b696e67": 3819,
    "20636f6d7075746572": 3820,
    "20676f6c64": 3821,
    "206e75": 3822,
    "2066696e67": 3823,
    "292c": 3824,
    "207365637572697479": 3825,
    "72756374696f6e": 3826,
    "20736f6c7574696f6e": 3827,
    "657874": 3828,
    "20706174746572": 3829,
    "69636b656e": 3830,
    "75726564": 3831,
    "207374616e64617264": 3832,
    "ec8b9c": 3833,
    "20646f75626c65": 3834,
    "ceb7": 3835,
    "2077696665": 3836,
    "697361": 3837,
    "206469726563746c79": 3838,
    "61636564": 3839,
    "2062756e6368": 3840,
    "20c2bf": 3841,
    "d0b0d0bbd18c": 3842,
    "20726567617264": 3843,
    "207377656574": 3844,
    "20756e69717565": 3845,
    "20e299ab": 3846,
    "20747261696e": 3847,
    "204765726d": 3848,
    "ceac": 3849,
    "5245": 3850,
    "206265686176": 3851,
    "2070726564": 3852,
    "ec83": 3853,
    "736574": 3854,
    "206465736372697074696f6e": 3855,
    "c3a965": 3856,
    "20636174": 3857,
    "e593": 3858,
    "20636f6c6c656765": 3859,
    "ec9b": 3860,
    "206170706c69636174696f6e": 3861,
    "2053656e": 3862,
    "61736b": 3863,
    "2063726564": 3864,
    "75626c6963": 3865,
    "206d756c7469706c65": 3866,
    "206e69": 3867,
    "20707265736964656e74": 3868,
    "206164646564": 3869,
    "20726f62": 3870,
    "2061717569": 3871,
    "20686f7370": 3872,
    "20746f6f6c73": 3873,
    "2067756e": 3874,
    "206261736963": 3875,
    "206c696e6573": 3876,
    "20737472756374757265": 3877,
    "2052757373": 3878,
    "20746f74616c6c79": 3879,
    "2062696767657374": 3880,
    "2065656e": 3881,
    "20617267": 3882,
    "20d79c": 3883,
    "207061726b": 3884,
    "20446573": 3885,
    "2063656c656272": 3886,
    "2066616974": 3887,
    "d0b5d0bdd18c": 3888,
    "2073756666": 3889,
    "20726567756c6172": 3890,
    "a8eb": 3891,
    "206d696e65": 3892,
    "204b6f7265": 3893,
    "2070726576696f7573": 3894,
    "207069": 3895,
    "20736567": 3896,
    "20706f6c696379": 3897,
    "20d0bad0be": 3898,
    "205472756d70": 3899,
    "2076616363": 3900,
    "c3b377": 3901,
    "205379": 3902,
    "d0b8d187": 3903,
    "6974746572": 3904,
    "20706f6c69746963616c": 3905,
    "726173": 3906,
    "20616c73": 3907,
    "d0b5d0bbd18c": 3908,
    "207368617065": 3909,
    "616e7a": 3910,
    "206f6e746f": 3911,
    "2061726368": 3912,
    "20616d62": 3913,
    "616772616d": 3914,
    "20536d": 3915,
    "6374696f6e73": 3916,
    "206a6f696e": 3917,
    "626f72": 3918,
    "e59b": 3919,
    "206672616d65": 3920,
    "a087": 3921,
    "2063686f696365": 3922,
    "e0af81": 3923,
    "d183d18e": 3924,
    "20436f72": 3925,
    "205377": 3926,
    "4954": 3927,
    "2074656e64": 3928,
    "20456172": 3929,
    "20746f72": 3930,
    "206576656e7473": 3931,
    "20636c61696d": 3932,
    "204461": 3933,
    "204d61726b": 3934,
    "2067726f757073": 3935,
    "20656174696e67": 3936,
    "20576f726c64": 3937,
    "20726563656e746c79": 3938,
    "207461737465": 3939,
    "2073757276": 3940,
    "e0a4": 3941,
    "20736b696c6c73": 3942,
    "20d0b8d0b7": 3943,
    "6974746564": 3944,
    "2073686f70": 3945,
    "ec9db4ec": 3946,
    "206573746162": 3947,
    "20eb8298": 3948,
    "207365636f6e6473": 3949,
    "2054686f7365": 3950,
    "20456e74": 3951,
    "20ec84": 3952,
    "6572736f6e": 3953,
    "20746f776e": 3954,
    "2063616e64": 3955,
    "206f7074696f6e73": 3956,
    "20696e67": 3957,
    "564944": 3958,
    "20656e636f7572": 3959,
    "2072c3a9": 3960,
    "e299aa": 3961,
    "20656e747265": 3962,
    "206d6f76656d656e74": 3963,
    "2042656e": 3964,
    "206269727468": 3965,
    "20776865": 3966,
    "2068616e67": 3967,
    "20456d": 3968,
    "696765": 3969,
    "726f6c6c": 3970,
    "20756e66": 3971,
    "ec82": 3972,
    "20726964": 3973,
    "20737072656164": 3974,
    "20686f7374": 3975,
    "616c64": 3976,
    "204564": 3977,
    "20636f6e73756d": 3978,
    "554e": 3979,
    "206f70696e": 3980,
    "69746172": 3981,
    "204d6564": 3982,
    "207375626a656374": 3983,
    "2070616c": 3984,
    "206361727279": 3985,
    "206167726565": 3986,
    "205768696c65": 3987,
    "20636172656572": 3988,
    "20736369656e74": 3989,
    "2073756464656e": 3990,
    "2066696c65": 3991,
    "7a69": 3992,
    "20657863657074": 3993,
    "e9ba": 3994,
    "20706f74656e7469616c": 3995,
    "20416e6f74686572": 3996,
    "20636f6d706c6578": 3997,
    "2053696d": 3998,
    "656e646f": 3999,
    "2072616973": 4000,
    "20706879736963616c": 4001,
    "2064617465": 4002,
    "616b6572": 4003,
    "20436f6c": 4004,
    "20706f77657266756c": 4005,
    "206d656d626572": 4006,
    "726170": 4007,
    "2073706f74": 4008,
    "20736f75726365": 4009,
    "2066656d": 4010,
    "c3a96d": 4011,
    "20656d70": 4012,
    "6a69": 4013,
    "69657479": 4014,
    "20696e666c75": 4015,
    "20647279": 4016,
    "206c6f636b": 4017,
    "207a65726f": 4018,
    "205568": 4019,
    "20726f7574": 4020,
    "20706f72717565": 4021,
    "203234": 4022,
    "2074616c": 4023,
    "20666f6c6b73": 4024,
    "206c61756e6368": 4025,
    "20636f6d706f6e": 4026,
    "2057656c636f6d65": 4027,
    "206b616e6e": 4028,
    "c3a46e": 4029,
    "20d18dd182": 4030,
    "656573": 4031,
    "20d988": 4032,
    "20616e79776179": 4033,
    "2061756469656e6365": 4034,
    "e4baba": 4035,
    "20736c69676874": 4036,
    "6f6e61": 4037,
    "207572": 4038,
    "2072656c6967": 4039,
    "2065787472656d": 4040,
    "c4b17a": 4041,
    "204d61": 4042,
    "cebc": 4043,
    "20c3b6": 4044,
    "20616c6c6f7773": 4045,
    "20666174": 4046,
    "2046616365": 4047,
    "206e6174696f6e616c": 4048,
    "20696e74657276696577": 4049,
    "204d63": 4050,
    "c3a974": 4051,
    "2063757465": 4052,
    "656c61": 4053,
    "20736563726574": 4054,
    "2057657374": 4055,
    "20446570": 4056,
    "206578657263": 4057,
    "20686973746f72": 4058,
    "207072696f72": 4059,
    "203630": 4060,
    "617661": 4061,
    "6163686572": 4062,
    "796f6e64": 4063,
    "204861": 4064,
    "2065737465": 4065,
    "696e617279": 4066,
    "204e6f727468": 4067,
    "6f6e7374": 4068,
    "20736d617274": 4069,
    "616d73": 4070,
    "d0b0d0bbd0b8": 4071,
    "20646172": 4072,
    "65726564": 4073,
    "2066756e6e79": 4074,
    "204f62": 4075,
    "20426c61636b": 4076,
    "2072656c61746564": 4077,
    "204275": 4078,
    "20736f6d657768657265": 4079,
    "2052656d": 4080,
    "6e6573": 4081,
    "6d656e7465": 4082,
    "205265616c6c79": 4083,
    "206372656174696e67": 4084,
    "2066616d696c": 4085,
    "20736f6369657479": 4086,
    "2067656c": 4087,
    "207472616e73666f726d": 4088,
    "c483": 4089,
    "20696e636c756465": 4090,
    "20686f6c": 4091,
    "6c696b65": 4092,
    "6b6f": 4093,
    "61697273": 4094,
    "20d0bfd0bed0b4": 4095,
    "207065727370656374": 4096,
    "20626573": 4097,
    "20706172746963756c61726c79": 4098,
    "2073686f77696e67": 4099,
    "2050617274": 4100,
    "207175616c": 4101,
    "6c6f636b": 4102,
    "207265616c697479": 4103,
    "686f6c64": 4104,
    "696374696f6e": 4105,
    "6f6f6e": 4106,
    "20766972": 4107,
    "e381ab": 4108,
    "6974617279": 4109,
    "2064727567": 4110,
    "2066656174757265": 4111,
    "20726561736f6e73": 4112,
    "20d7a9": 4113,
    "2077726f7465": 4114,
    "2066616e74": 4115,
    "2062616e64": 4116,
    "d983": 4117,
    "656e61": 4118,
    "6b6579": 4119,
    "206561727468": 4120,
    "646f6d": 4121,
    "206665617475726573": 4122,
    "20666c6f6f72": 4123,
    "20737065616b696e67": 4124,
    "20746970": 4125,
    "2041757374": 4126,
    "2073746f636b": 4127,
    "20636875726368": 4128,
    "20726163": 4129,
    "ec9cbceba19c": 4130,
    "e0b899": 4131,
    "e3828c": 4132,
    "6b79": 4133,
    "20726573706f6e7365": 4134,
    "db8c": 4135,
    "756c6174696f6e73": 4136,
    "20736c696465": 4137,
    "206772616475": 4138,
    "63696f7573": 4139,
    "206d65616e74": 4140,
    "203d3d": 4141,
    "20d790d7": 4142,
    "e385": 4143,
    "206b696e6461": 4144,
    "207363656e65": 4145,
    "206d756974": 4146,
    "20eab080": 4147,
    "72617374": 4148,
    "72657374": 4149,
    "20706c6179657273": 4150,
    "7761": 4151,
    "2062726f6164": 4152,
    "20746f6d6f72726f77": 4153,
    "6f636f6c": 4154,
    "20d181d0b2": 4155,
    "20426172": 4156,
    "c4b16b": 4157,
    "20736561": 4158,
    "2072656d6f7665": 4159,
    "2072656d696e64": 4160,
    "d0bed0bcd183": 4161,
    "2053696e6365": 4162,
    "2061766563": 4163,
    "63656c6c": 4164,
    "d0b8d185": 4165,
    "20646f63756d656e74": 4166,
    "20eab7b8eb9f": 4167,
    "206e65696768": 4168,
    "62656174": 4169,
    "2070c3a5": 4170,
    "20617370656374": 4171,
    "20646564": 4172,
    "6c6973686564": 4173,
    "696c73": 4174,
    "206f757273656c766573": 4175,
    "756365": 4176,
    "20686579": 4177,
    "20d0bfd180d0be": 4178,
    "656e7479": 4179,
    "206173736f6369": 4180,
    "61646f73": 4181,
    "756d626572": 4182,
    "205d": 4183,
    "e982a3": 4184,
    "6e6f76": 4185,
    "20ec99": 4186,
    "d183d187": 4187,
    "20636f6e646974696f6e": 4188,
    "eb8a94eb8db0": 4189,
    "2076616c756573": 4190,
    "207363656e": 4191,
    "6d696e697374": 4192,
    "2063617374": 4193,
    "2067726f77696e67": 4194,
    "2075736572": 4195,
    "20726573706f6e64": 4196,
    "6c696d": 4197,
    "c3a972": 4198,
    "796d": 4199,
    "e79c8b": 4200,
    "6f736573": 4201,
    "73796368": 4202,
    "20d180d0b0d0b7": 4203,
    "20617070656172": 4204,
    "2070726f6772657373": 4205,
    "656e677468": 4206,
    "206a616b": 4207,
    "20446973": 4208,
    "2070617469656e7473": 4209,
    "20536572": 4210,
    "20676173": 4211,
    "c3a87265": 4212,
    "ec96b4ec9a94": 4213,
    "2072656369": 4214,
    "ec9db8": 4215,
    "20736361": 4216,
    "6570656e64": 4217,
    "d181d0ba": 4218,
    "d0b0d0bf": 4219,
    "20626174746572": 4220,
    "20766568": 4221,
    "f09f": 4222,
    "206163636f6d": 4223,
    "2062656174": 4224,
    "207061696e74": 4225,
    "20636f6e74726962": 4226,
    "20736164": 4227,
    "c6b0": 4228,
    "616c6573": 4229,
    "2074726565": 4230,
    "6261": 4231,
    "20626f726e": 4232,
    "69636564": 4233,
    "e0ae95": 4234,
    "62616e64": 4235,
    "206d656368616e": 4236,
    "20446574": 4237,
    "206361706974616c": 4238,
    "2064656c69766572": 4239,
    "2066656172": 4240,
    "9e98": 4241,
    "20536f757468": 4242,
    "20626f75676874": 4243,
    "20737472657373": 4244,
    "20766f72": 4245,
    "3f3f": 4246,
    "6968": 4247,
    "ec95bc": 4248,
    "20657261": 4249,
    "ec9db4eb": 4250,
    "d0b0d18f": 4251,
    "6973696f6e73": 4252,
    "6976697479": 4253,
    "2068656c706564": 4254,
    "20617373697374": 4255,
    "20706c61796572": 4256,
    "72616e": 4257,
    "20696d6d6564696174656c79": 4258,
    "206d6f766564": 4259,
    "636965": 4260,
    "eab1": 4261,
    "20616e6e6f756e": 4262,
    "e5bf": 4263,
    "ec9e90": 4264,
    "2070726f64756374696f6e": 4265,
    "2073756d6d6572": 4266,
    "2074756e": 4267,
    "2070726f6772616d73": 4268,
    "4748": 4269,
    "616c696e67": 4270,
    "697261": 4271,
    "656c657373": 4272,
    "2e29": 4273,
    "2061766572616765": 4274,
    "e8a681": 4275,
    "20676c617373": 4276,
    "6f6d616e": 4277,
    "69666963616c6c79": 4278,
    "20eb8ba4": 4279,
    "20436f6e67": 4280,
    "20566572": 4281,
    "20747269636b": 4282,
    "20626567616e": 4283,
    "2076696c6c": 4284,
    "eab1b0": 4285,
    "686f77": 4286,
    "e6ad": 4287,
    "2074696c6c": 4288,
    "203930": 4289,
    "62657274": 4290,
    "20eab8": 4291,
    "2074656d7065726174757265": 4292,
    "c3b2": 4293,
    "e0b988": 4294,
    "206772617068": 4295,
    "20eab7b8": 4296,
    "20726f74": 4297,
    "206d6f62": 4298,
    "4159": 4299,
    "61656c": 4300,
    "2072657065": 4301,
    "20646576696365": 4302,
    "20313939": 4303,
    "2074656c65": 4304,
    "206b657074": 4305,
    "7061": 4306,
    "e696": 4307,
    "7665727365": 4308,
    "2073747265616d": 4309,
    "d0b5d187": 4310,
    "657373696f6e": 4311,
    "20737472756767": 4312,
    "7a7a": 4313,
    "20646567726565": 4314,
    "2068656c70696e67": 4315,
    "20736d656c6c": 4316,
    "2070657268617073": 4317,
    "70726f": 4318,
    "20636f6e74657874": 4319,
    "20696b": 4320,
    "20d0bfd0b5d180": 4321,
    "2063616c63756c": 4322,
    "e9babc": 4323,
    "62696e67": 4324,
    "207265616c697a65": 4325,
    "6c616d": 4326,
    "2043686172": 4327,
    "7974": 4328,
    "20ec9db4ec": 4329,
    "2064616e676572": 4330,
    "20496d": 4331,
    "6161": 4332,
    "206c6f766564": 4333,
    "20707572706f7365": 4334,
    "2066696e6973686564": 4335,
    "207065616365": 4336,
    "206f74": 4337,
    "20676c6f62616c": 4338,
    "cf80": 4339,
    "2061626572": 4340,
    "9688": 4341,
    "2063686172616374657273": 4342,
    "206e7572": 4343,
    "2064616d616765": 4344,
    "20656d6572": 4345,
    "2070726563": 4346,
    "20576972": 4347,
    "20696e73746974": 4348,
    "91d7": 4349,
    "20616c6c6f776564": 4350,
    "626f6e": 4351,
    "20746f64": 4352,
    "d0b5d0b3d0be": 4353,
    "206a65747a74": 4354,
    "206d65646963": 4355,
    "20736d616c6c6572": 4356,
    "63656564": 4357,
    "206c6576656c73": 4358,
    "20696e74656c6c": 4359,
    "5765": 4360,
    "2073656d": 4361,
    "2063757272656e746c79": 4362,
    "206d6f6465726e": 4363,
    "20636f6e7472616374": 4364,
    "2064657461696c73": 4365,
    "6f7274756e6174656c79": 4366,
    "4f53": 4367,
    "20737461746573": 4368,
    "2061646a757374": 4369,
    "616e74616765": 4370,
    "657a": 4371,
    "2056657279": 4372,
    "207363616c65": 4373,
    "2072656c65617365": 4374,
    "2066617a": 4375,
    "206963": 4376,
    "6974756465": 4377,
    "4143": 4378,
    "20506174": 4379,
    "6964656e": 4380,
    "ad90": 4381,
    "20707265666572": 4382,
    "6f6c6f676963616c": 4383,
    "2046616365626f6f6b": 4384,
    "20eab099": 4385,
    "202e2e": 4386,
    "204d616b65": 4387,
    "20d0bad0bed182d0bed180": 4388,
    "204461766964": 4389,
    "204166726963": 4390,
    "206d6f6465": 4391,
    "2043697479": 4392,
    "207368616c6c": 4393,
    "20d184": 4394,
    "696d696e": 4395,
    "20d0b7d0b0": 4396,
    "726f6d": 4397,
    "7561": 4398,
    "206265796f6e64": 4399,
    "2064697374726962": 4400,
    "d0bad183": 4401,
    "20446f6573": 4402,
    "2076696374": 4403,
    "72617465": 4404,
    "20766169": 4405,
    "207375636365737366756c": 4406,
    "20686f7573": 4407,
    "616861": 4408,
    "65737473": 4409,
    "20457374": 4410,
    "20646973636f766572": 4411,
    "207468657265666f7265": 4412,
    "636861": 4413,
    "20637570": 4414,
    "20706f70756c6174696f6e": 4415,
    "20496c": 4416,
    "7363": 4417,
    "207370656e74": 4418,
    "72656c": 4419,
    "2075736566756c": 4420,
    "20746162": 4421,
    "e69d": 4422,
    "20c5": 4423,
    "20eca09c": 4424,
    "20636f6e7365": 4425,
    "207175616e74": 4426,
    "617961": 4427,
    "20626f6e": 4428,
    "e58faf": 4429,
    "204368696e": 4430,
    "20eab283": 4431,
    "6f756e6473": 4432,
    "d0b5d188": 4433,
    "656c6c65": 4434,
    "20696365": 4435,
    "3231": 4436,
    "206b69636b": 4437,
    "e4b88b": 4438,
    "207374657073": 4439,
    "20746f6e69676874": 4440,
    "d0bdd18bd0b9": 4441,
    "72656e6368": 4442,
    "2e27": 4443,
    "2067726162": 4444,
    "20696d706c656d656e74": 4445,
    "20ec8898": 4446,
    "206d697373696f6e": 4447,
    "20636c6561726c79": 4448,
    "2061707072656369617465": 4449,
    "e880": 4450,
    "206672657368": 4451,
    "61726d": 4452,
    "2054776f": 4453,
    "2065786563": 4454,
    "2070726f6a65637473": 4455,
    "20636f6d6d756e6974696573": 4456,
    "7269626c65": 4457,
    "20726567696f6e": 4458,
    "206672657175": 4459,
    "726f79": 4460,
    "20686f7765766572": 4461,
    "20706172746e657273": 4462,
    "616e63": 4463,
    "206d696e696d": 4464,
    "206c6174": 4465,
    "2066616d696c696573": 4466,
    "2065766964656e6365": 4467,
    "2070756e": 4468,
    "72616674": 4469,
    "206c6f7373": 4470,
    "206d6170": 4471,
    "20616e79626f6479": 4472,
    "206368616e67696e67": 4473,
    "2072756c6573": 4474,
    "206f7267616e697a6174696f6e": 4475,
    "20657373656e7469616c6c79": 4476,
    "20526564": 4477,
    "20656c656d656e74": 4478,
    "e697": 4479,
    "2076697274": 4480,
    "726174": 4481,
    "207072696e74": 4482,
    "616e646572": 4483,
    "6172656e": 4484,
    "656d6f73": 4485,
    "cebfcf85": 4486,
    "20636f6e646974696f6e73": 4487,
    "616265": 4488,
    "2064616e6365": 4489,
    "d0b8d180": 4490,
    "20646f73": 4491,
    "d0bed187": 4492,
    "20517565": 4493,
    "2077616c6b696e67": 4494,
    "2074726f": 4495,
    "206964": 4496,
    "206164646974696f6e616c": 4497,
    "2066756c6c79": 4498,
    "2066616e73": 4499,
    "206164646974696f6e": 4500,
    "206c696b6564": 4501,
    "20c3bc626572": 4502,
    "20626f77": 4503,
    "6469": 4504,
    "206d6173746572": 4505,
    "6f6666": 4506,
    "293a": 4507,
    "6d626572": 4508,
    "20ebac": 4509,
    "e5af": 4510,
    "e588b0": 4511,
    "6c61757365": 4512,
    "206f646572": 4513,
    "20736166657479": 4514,
    "207265616374": 4515,
    "e0aebf": 4516,
    "6274": 4517,
    "20646973617070": 4518,
    "206769726c73": 4519,
    "5374": 4520,
    "20416e67": 4521,
    "206661697468": 4522,
    "207475726e73": 4523,
    "207469676874": 4524,
    "206d6f757468": 4525,
    "616d69": 4526,
    "7a6572": 4527,
    "2077656170": 4528,
    "20d0b1d183d0b4": 4529,
    "20686f73706974616c": 4530,
    "72616964": 4531,
    "206d6963726f": 4532,
    "205374617465": 4533,
    "204d6f7374": 4534,
    "61676e": 4535,
    "20646563696465": 4536,
    "2070617469656e74": 4537,
    "20636f726e6572": 4538,
    "2064696564": 4539,
    "4e6f": 4540,
    "2053747564": 4541,
    "72656e64": 4542,
    "656d7074": 4543,
    "206c6965": 4544,
    "206c6966": 4545,
    "204265666f7265": 4546,
    "74c3b3": 4547,
    "205375706572": 4548,
    "2062656c6c": 4549,
    "3630": 4550,
    "2070726976617465": 4551,
    "205061756c": 4552,
    "20676962": 4553,
    "2061677265": 4554,
    "b4ec849c": 4555,
    "20736967": 4556,
    "20696e766573746967": 4557,
    "d18fd182": 4558,
    "656e696e67": 4559,
    "2064697374616e6365": 4560,
    "207761726d": 4561,
    "206469676974616c": 4562,
    "e5be88": 4563,
    "696e6572": 4564,
    "2070616e64": 4565,
    "20434f564944": 4566,
    "d0b3d0be": 4567,
    "676e": 4568,
    "2072616365": 4569,
    "2070726f7564": 4570,
    "207465616368696e67": 4571,
    "20d182d0be": 4572,
    "ec9ea5": 4573,
    "20416c6c6168": 4574,
    "496e": 4575,
    "20776f6f64": 4576,
    "20636f6c6f7273": 4577,
    "2077697264": 4578,
    "756a": 4579,
    "69646164": 4580,
    "20637573746f6d657273": 4581,
    "20636f6e6e6563746564": 4582,
    "206c61796572": 4583,
    "2061636869657665": 4584,
    "207065727370656374697665": 4585,
    "20436f6c6c": 4586,
    "d982": 4587,
    "20636c6f7564": 4588,
    "212121": 4589,
    "20656e646564": 4590,
    "a087eab28c": 4591,
    "206d616e6167656d656e74": 4592,
    "2072696368": 4593,
    "207375627374": 4594,
    "2072656d6f": 4595,
    "207365727665": 4596,
    "20726573697374": 4597,
    "2074686f7567687473": 4598,
    "2067726f777468": 4599,
    "696c696172": 4600,
    "20726967687473": 4601,
    "20636861726765": 4602,
    "20636f6e73697374": 4603,
    "2077657264656e": 4604,
    "20656d62": 4605,
    "616e646f6d": 4606,
    "2068757274": 4607,
    "206b616e": 4608,
    "696173": 4609,
    "d0bbd0be": 4610,
    "2073686974": 4611,
    "20626567": 4612,
    "207265636569766564": 4613,
    "69746174696f6e": 4614,
    "206d656174": 4615,
    "206973736f": 4616,
    "66666565": 4617,
    "2066616d6f7573": 4618,
    "20636f6d666f727461626c65": 4619,
    "494c": 4620,
    "20427965": 4621,
    "e8aaaa": 4622,
    "e58091": 4623,
    "6f74686573": 4624,
    "206d65646963616c": 4625,
    "20656e6a6f796564": 4626,
    "206865616c746879": 4627,
    "207779": 4628,
    "63696573": 4629,
    "206566666f7274": 4630,
    "20646f63746f72": 4631,
    "206d696c6974617279": 4632,
    "4c4155": 4633,
    "2067726f": 4634,
    "20626174746c65": 4635,
    "20666564": 4636,
    "206361706163": 4637,
    "20616672616964": 4638,
    "6976696c": 4639,
    "20d0b2d181d0b5": 4640,
    "206c656e677468": 4641,
    "79736973": 4642,
    "20626569": 4643,
    "a4ed": 4644,
    "206f7267616e697a": 4645,
    "6f7267": 4646,
    "696e63": 4647,
    "20696e746572616374": 4648,
    "204368696e657365": 4649,
    "206163636f7264696e67": 4650,
    "20696e6372656469626c65": 4651,
    "206b696c6c6564": 4652,
    "206461756768746572": 4653,
    "20cf80": 4654,
    "d18bd0b2": 4655,
    "207363686f6f6c73": 4656,
    "20c2ab": 4657,
    "6c6c6572": 4658,
    "2073686f756c646e": 4659,
    "6e616c": 4660,
    "2063726973": 4661,
    "20636869636b656e": 4662,
    "20666173746572": 4663,
    "2065787472656d656c79": 4664,
    "206f70706f73": 4665,
    "206e6f7573": 4666,
    "202b": 4667,
    "726961": 4668,
    "2066696e616e6369616c": 4669,
    "206578636974696e67": 4670,
    "206a6f75726e6579": 4671,
    "d799d79d": 4672,
    "a0eb": 4673,
    "20646973706c6179": 4674,
    "206d656d6f7279": 4675,
    "206865617679": 4676,
    "d0bdd0b5": 4677,
    "20706173736564": 4678,
    "d180d0b8": 4679,
    "696c6573": 4680,
    "207073796368": 4681,
    "207370656369666963616c6c79": 4682,
    "20656e67616765": 4683,
    "206c6564": 4684,
    "6f726765": 4685,
    "2044656d": 4686,
    "6f72646572": 4687,
    "203830": 4688,
    "20637265616d": 4689,
    "6573746572646179": 4690,
    "2065646765": 4691,
    "20d0bfd0bed0bb": 4692,
    "2062756c6c": 4693,
    "20696e646963": 4694,
    "206b74c3b3": 4695,
    "20686f706566756c6c79": 4696,
    "756d656e7473": 4697,
    "6167656e": 4698,
    "d0bdd0bed0b3d0be": 4699,
    "2068617465": 4700,
    "636874": 4701,
    "3830": 4702,
    "206566666963": 4703,
    "20eca780": 4704,
    "20696e7465726e6574": 4705,
    "20627564676574": 4706,
    "2070726f7065727479": 4707,
    "69646179": 4708,
    "20ec9a": 4709,
    "20d0bcd0bed0b6": 4710,
    "6f6c61": 4711,
    "2073686f776564": 4712,
    "204d6f6e": 4713,
    "2074686f7573616e64": 4714,
    "4150": 4715,
    "20706f6f72": 4716,
    "75736564": 4717,
    "204a61636b": 4718,
    "2073c3a5": 4719,
    "83bd": 4720,
    "20657363": 4721,
    "20736f667477617265": 4722,
    "2071756172": 4723,
    "20d8a8": 4724,
    "206e65636573736172696c79": 4725,
    "6f6d656e": 4726,
    "6979": 4727,
    "206576656e7475616c6c79": 4728,
    "6973686564": 4729,
    "20627269676874": 4730,
    "4544": 4731,
    "2073706c": 4732,
    "2064656d616e64": 4733,
    "20746872656174": 4734,
    "20736972": 4735,
    "2072656c6561736564": 4736,
    "636b6574": 4737,
    "20e280ab": 4738,
    "207265717569726564": 4739,
    "20766f7465": 4740,
    "ecb9": 4741,
    "e0aea4": 4742,
    "20646576656c6f706564": 4743,
    "20ec82ac": 4744,
    "61746f7279": 4745,
    "20646972": 4746,
    "63617065": 4747,
    "20736c696768746c79": 4748,
    "c3ac": 4749,
    "e0b989": 4750,
    "72656574": 4751,
    "2064697365617365": 4752,
    "20636f757274": 4753,
    "206974656d73": 4754,
    "204561727468": 4755,
    "d181d182d0b8": 4756,
    "d0b6d0b5": 4757,
    "ecb2": 4758,
    "206368616c6c656e676573": 4759,
    "2042726974": 4760,
    "2064657369676e6564": 4761,
    "3132": 4762,
    "2068656172696e67": 4763,
    "206c697374656e696e67": 4764,
    "7a6f": 4765,
    "20d181d0bb": 4766,
    "e381a7e38199": 4767,
    "207065726f": 4768,
    "2077656172696e67": 4769,
    "706c6963": 4770,
    "206368656d": 4771,
    "2062616c616e6365": 4772,
    "206261": 4773,
    "2072656365697665": 4774,
    "696d61": 4775,
    "207369676e69666963616e74": 4776,
    "20d0bcd18b": 4777,
    "616e6368": 4778,
    "204372": 4779,
    "20436f756e": 4780,
    "eab888": 4781,
    "206a6f6273": 4782,
    "206f6666696369616c": 4783,
    "207065726d": 4784,
    "6f6d73": 4785,
    "206f70706f7274756e6974696573": 4786,
    "206f766572616c6c": 4787,
    "20687573": 4788,
    "6f646573": 4789,
    "206e6174696f6e": 4790,
    "20526567": 4791,
    "206f7264": 4792,
    "2072657374617572": 4793,
    "20ec86": 4794,
    "206d656c": 4795,
    "76696e": 4796,
    "2077656e6e": 4797,
    "206bc3b66e": 4798,
    "e683": 4799,
    "206f70696e696f6e": 4800,
    "e38282": 4801,
    "e8ac": 4802,
    "20536f6d6574696d6573": 4803,
    "e782": 4804,
    "d189d0b5": 4805,
    "617363": 4806,
    "4f55": 4807,
    "2032303230": 4808,
    "2064656c6963696f7573": 4809,
    "69676572": 4810,
    "20ec9588": 4811,
    "6f6c65": 4812,
    "2068616e646c65": 4813,
    "20636974": 4814,
    "20ed959c": 4815,
    "2066c3b672": 4816,
    "6f6f7468": 4817,
    "206e6563657373617279": 4818,
    "20696e646570656e64": 4819,
    "e684": 4820,
    "697374656e": 4821,
    "68616d": 4822,
    "20c3a974": 4823,
    "e383b3": 4824,
    "206d756c7469": 4825,
    "cf8c": 4826,
    "3f29": 4827,
    "2063616d707573": 4828,
    "20746f706963": 4829,
    "207261696e": 4830,
    "2070616e656c": 4831,
    "2053616d": 4832,
    "206c6172676572": 4833,
    "61756469656e6365": 4834,
    "2070616964": 4835,
    "2065636f6e6f6d6963": 4836,
    "6f6c74": 4837,
    "20737472656574": 4838,
    "20436f6e74": 4839,
    "2064726976696e67": 4840,
    "20eca080": 4841,
    "20686179": 4842,
    "2070726f66657373696f6e616c": 4843,
    "20496e7465726e": 4844,
    "e5b8": 4845,
    "20696e707574": 4846,
    "206361746567": 4847,
    "2063726f": 4848,
    "206c6c": 4849,
    "4554": 4850,
    "d18bd0b9": 4851,
    "2a2a": 4852,
    "205a65": 4853,
    "424c45": 4854,
    "20eca4": 4855,
    "72656573": 4856,
    "20d0af": 4857,
    "656465": 4858,
    "69657274": 4859,
    "20666f6c64": 4860,
    "20647572": 4861,
    "204e6174696f6e616c": 4862,
    "20ec96b4eb": 4863,
    "616e636564": 4864,
    "206661697265": 4865,
    "75746564": 4866,
    "206b696e67": 4867,
    "2077696c64": 4868,
    "6f69": 4869,
    "757062656174": 4870,
    "2070726576656e74": 4871,
    "697573": 4872,
    "20c3a8": 4873,
    "2077696465": 4874,
    "2072696e67": 4875,
    "207469746c65": 4876,
    "207374616e64696e67": 4877,
    "20616c74686f756768": 4878,
    "206869": 4879,
    "207361756365": 4880,
    "207369646573": 4881,
    "20616e696d616c73": 4882,
    "696c696e67": 4883,
    "617469766573": 4884,
    "ec9790ec849c": 4885,
    "204f766572": 4886,
    "2064657370": 4887,
    "20636f6e73696465726564": 4888,
    "6172696573": 4889,
    "69657273": 4890,
    "2065696e656e": 4891,
    "20736973746572": 4892,
    "20eb95": 4893,
    "2053757265": 4894,
    "e3828b": 4895,
    "7269656e64": 4896,
    "6169676e": 4897,
    "2073686f776e": 4898,
    "20736163": 4899,
    "20736f6e74": 4900,
    "2063656e74757279": 4901,
    "207469656e": 4902,
    "20ceba": 4903,
    "205354": 4904,
    "e5958a": 4905,
    "206f6c646572": 4906,
    "69656d": 4907,
    "207472756c79": 4908,
    "205369": 4909,
    "2077696e646f77": 4910,
    "6971756573": 4911,
    "6172696f": 4912,
    "e6b292": 4913,
    "206c6f636174696f6e": 4914,
    "ceba": 4915,
    "20ec9c": 4916,
    "7669": 4917,
    "61677565": 4918,
    "20536f727279": 4919,
    "2064697370": 4920,
    "2068656c6c": 4921,
    "20c389": 4922,
    "207472616465": 4923,
    "20637269746963616c": 4924,
    "20eab1": 4925,
    "206e616d6564": 4926,
    "207072657061726564": 4927,
    "20486f757365": 4928,
    "616c75": 4929,
    "20746f756768": 4930,
    "2074726970": 4931,
    "2073616e64": 4932,
    "63656c": 4933,
    "c3bc7a": 4934,
    "20507574": 4935,
    "206170617274": 4936,
    "697366": 4937,
    "766973": 4938,
    "206c696272": 4939,
    "6176656e": 4940,
    "20766965": 4941,
    "20656666656374697665": 4942,
    "e0b8b2": 4943,
    "206d61676e": 4944,
    "206d7569746f": 4945,
    "20eab5": 4946,
    "68616c": 4947,
    "206c696d6974": 4948,
    "206e696e65": 4949,
    "2077696c6c696e67": 4950,
    "c4b1c59f": 4951,
    "7370": 4952,
    "d0b5d0b3": 4953,
    "6869": 4954,
    "20616c74": 4955,
    "204a616e": 4956,
    "206f726967696e": 4957,
    "205573": 4958,
    "20656c656d656e7473": 4959,
    "2075736573": 4960,
    "2068656c7066756c": 4961,
    "20666c6174": 4962,
    "2066616d696c696172": 4963,
    "205061726b": 4964,
    "20636f7265": 4965,
    "20636c6f736572": 4966,
    "20616374697665": 4967,
    "2061646d696e697374": 4968,
    "4345": 4969,
    "d0bdd18bd0b5": 4970,
    "e784": 4971,
    "2072656c6174697665": 4972,
    "206d656e74616c": 4973,
    "2072616e646f6d": 4974,
    "20706172746e6572": 4975,
    "207574696c": 4976,
    "70686f6e65": 4977,
    "2072756c65": 4978,
    "7777": 4979,
    "20eca095": 4980,
    "207363686f6e": 4981,
    "20636f66666565": 4982,
    "4841": 4983,
    "20636f6e6e656374696f6e": 4984,
    "20756e6974": 4985,
    "6c61756768696e67": 4986,
    "6c6f67": 4987,
    "206170706c": 4988,
    "d0bbd0b0": 4989,
    "75736963": 4990,
    "20427261": 4991,
    "20616e797768657265": 4992,
    "41554449": 4993,
    "207365706172617465": 4994,
    "626f78": 4995,
    "206469766964": 4996,
    "2074657374696e67": 4997,
    "207369636b": 4998,
    "20776572656e": 4999,
    "e4bb96": 5000,
    "20d79cd7": 5001,
    "20616476616e74616765": 5002,
    "207472616e73666572": 5003,
    "272e": 5004,
    "20ebb9": 5005,
    "2066696e64696e67": 5006,
    "d0bdd0bed0b9": 5007,
    "20eca28b": 5008,
    "20666f7274": 5009,
    "2065636f6e6f6d79": 5010,
    "206c61636b": 5011,
    "206c656176696e67": 5012,
    "2064696d": 5013,
    "e58e": 5014,
    "20526573": 5015,
    "d8ad": 5016,
    "2064697363757373696f6e": 5017,
    "d0b5d0bf": 5018,
    "20676573": 5019,
    "64756374": 5020,
    "20636861696e": 5021,
    "207573657273": 5022,
    "656368": 5023,
    "c58261": 5024,
    "2064697368": 5025,
    "206361726566756c": 5026,
    "2074656163686572": 5027,
    "206f7074696d": 5028,
    "20666c75": 5029,
    "61746963616c6c79": 5030,
    "207265666c656374": 5031,
    "2074726561746d656e74": 5032,
    "656564": 5033,
    "69c499": 5034,
    "c3b9": 5035,
    "e0aebe": 5036,
    "206571756970": 5037,
    "20706c616e6e696e67": 5038,
    "20736f6c7665": 5039,
    "e3819d": 5040,
    "20546f6d": 5041,
    "2061766f6964": 5042,
    "20706f75": 5043,
    "2067726561746572": 5044,
    "6c696e": 5045,
    "4f4c": 5046,
    "204c75": 5047,
    "204d6f7265": 5048,
    "2061747472616374": 5049,
    "c3aa6e": 5050,
    "756e61": 5051,
    "2070686f746f": 5052,
    "65726174696f6e": 5053,
    "20706c616e6574": 5054,
    "20636f7079": 5055,
    "2076697375616c": 5056,
    "6972696e67": 5057,
    "20696e7465726e6174696f6e616c": 5058,
    "206c61756768696e67": 5059,
    "20746869636b": 5060,
    "20686f6c64696e67": 5061,
    "206272696e67696e67": 5062,
    "206c6574746572": 5063,
    "206275726e": 5064,
    "2065666665637473": 5065,
    "6974c3a9": 5066,
    "6f757273": 5067,
    "4f54": 5068,
    "c3aa6d65": 5069,
    "205363686f6f6c": 5070,
    "d795d7aa": 5071,
    "726f707269": 5072,
    "6c6967": 5073,
    "ceb1ceb9": 5074,
    "206164756c74": 5075,
    "207375676172": 5076,
    "2072696465": 5077,
    "20686967686c69676874": 5078,
    "206e6f626f6479": 5079,
    "203231": 5080,
    "2063686174": 5081,
    "20d0bfd180d0b8": 5082,
    "20696e6e6f76": 5083,
    "756e67656e": 5084,
    "20617474616368": 5085,
    "65646f6d": 5086,
    "e58a": 5087,
    "796c": 5088,
    "206c6567616c": 5089,
    "2072696365": 5090,
    "20636f6c6c61626f72": 5091,
    "6b696e67": 5092,
    "646f776e": 5093,
    "e699": 5094,
    "e3828a": 5095,
    "206968": 5096,
    "204163": 5097,
    "6f75736c79": 5098,
    "20726170": 5099,
    "20736f6c6964": 5100,
    "2067656e6572616c6c79": 5101,
    "207061747465726e": 5102,
    "616c69": 5103,
    "e0b8ad": 5104,
    "207472616e736c": 5105,
    "696e746572": 5106,
    "61756c74": 5107,
    "20eba8": 5108,
    "2065787072657373": 5109,
    "206578616d706c6573": 5110,
    "2063686f7365": 5111,
    "2074656c6c73": 5112,
    "c3ad73": 5113,
    "61696e74": 5114,
    "2054656c6c": 5115,
    "204d69636861656c": 5116,
    "e6a8": 5117,
    "204e756d626572": 5118,
    "20746170": 5119,
    "206578706572696d656e74": 5120,
    "2062656e65666974": 5121,
    "20ecb0": 5122,
    "2073657175": 5123,
    "20657870656e73697665": 5124,
    "2067656e65726174696f6e": 5125,
    "204d616e79": 5126,
    "20616464696e67": 5127,
    "206b696c": 5128,
    "2063616d706169676e": 5129,
    "20416e74": 5130,
    "726177": 5131,
    "6f6d6d656e": 5132,
    "20736f756c": 5133,
    "6a6f": 5134,
    "2041637475616c6c79": 5135,
    "616d6d": 5136,
    "eab2a0": 5137,
    "206d6178696d": 5138,
    "2073616c74": 5139,
    "20637275": 5140,
    "2063616c6c696e67": 5141,
    "e3818c": 5142,
    "206261736973": 5143,
    "62616e": 5144,
    "206b656570696e67": 5145,
    "204d6f72": 5146,
    "656473": 5147,
    "ec86": 5148,
    "20746f646f": 5149,
    "d0b0d0bcd0b8": 5150,
    "d0bdd18f": 5151,
    "206c69766564": 5152,
    "204475": 5153,
    "e38289": 5154,
    "e5aeb6": 5155,
    "666f726365": 5156,
    "e5b9b4": 5157,
    "666572656e6365": 5158,
    "616c61": 5159,
    "206f63637572": 5160,
    "736b": 5161,
    "20726563656e74": 5162,
    "2063617273": 5163,
    "20747261646974696f6e616c": 5164,
    "656e746c65": 5165,
    "b288": 5166,
    "2068656c64": 5167,
    "206e616368": 5168,
    "2043656e746572": 5169,
    "6572656e": 5170,
    "2062696e": 5171,
    "d981": 5172,
    "20636f6d6d65": 5173,
    "2072657665": 5174,
    "20ec98a4": 5175,
    "206578706563746564": 5176,
    "6162696c": 5177,
    "20666f6375736564": 5178,
    "6f76": 5179,
    "206950": 5180,
    "6f7269616c": 5181,
    "69726f": 5182,
    "20657463": 5183,
    "616d696e67": 5184,
    "20536f6e": 5185,
    "20796573746572646179": 5186,
    "20737472617465": 5187,
    "20d186": 5188,
    "20eb8f": 5189,
    "706573": 5190,
    "206163746976697479": 5191,
    "20616476696365": 5192,
    "206f70656e696e67": 5193,
    "66696e": 5194,
    "2072656c61": 5195,
    "e996": 5196,
    "20696e7374616e6365": 5197,
    "2045766572796f6e65": 5198,
    "626c": 5199,
    "70656e": 5200,
    "20766973696f6e": 5201,
    "20416c6578": 5202,
    "69666f726e": 5203,
    "207469636b": 5204,
    "4865": 5205,
    "207374726174656779": 5206,
    "206b6f6d": 5207,
    "5045": 5208,
    "20476c": 5209,
    "20656c656374726963": 5210,
    "3135": 5211,
    "206461696c79": 5212,
    "2068757362616e64": 5213,
    "2073746174696f6e": 5214,
    "20616e616c79736973": 5215,
    "796e616d": 5216,
    "20617474656d7074": 5217,
    "2062696c6c696f6e": 5218,
    "76616e74": 5219,
    "20666f727468": 5220,
    "206d617468": 5221,
    "616c79": 5222,
    "206265686176696f72": 5223,
    "204d6173": 5224,
    "6b616e": 5225,
    "20446179": 5226,
    "20626c657373": 5227,
    "20677574": 5228,
    "2048696768": 5229,
    "6f78": 5230,
    "206472657373": 5231,
    "206a6564": 5232,
    "e8af": 5233,
    "e596": 5234,
    "20657870657269656e636573": 5235,
    "69737461": 5236,
    "206669676874696e67": 5237,
    "e5b7": 5238,
    "20d181d0ba": 5239,
    "206d6f73746c79": 5240,
    "61757365": 5241,
    "207069637475726573": 5242,
    "d0b5d0bdd182": 5243,
    "206d6164": 5244,
    "206d6f64656c73": 5245,
    "d188d0b5": 5246,
    "20436f756e74": 5247,
    "c584": 5248,
    "c5826f": 5249,
    "657074": 5250,
    "4f4d": 5251,
    "20414e": 5252,
    "2074726f75626c65": 5253,
    "3430": 5254,
    "2062697264": 5255,
    "756c617465": 5256,
    "206d7572": 5257,
    "2070726f64756365": 5258,
    "206d617272696564": 5259,
    "626974": 5260,
    "207468656f7279": 5261,
    "ed98": 5262,
    "206c6561646572": 5263,
    "204c617374": 5264,
    "4141": 5265,
    "e8b5": 5266,
    "20696d61676573": 5267,
    "20657870616e64": 5268,
    "20506f72": 5269,
    "207075726368": 5270,
    "2053616e": 5271,
    "204368726973746d6173": 5272,
    "204175737472616c": 5273,
    "20776964": 5274,
    "204d697373": 5275,
    "206b6e6f77696e67": 5276,
    "207a65": 5277,
    "73686970": 5278,
    "6b75": 5279,
    "d185d0bed0b4": 5280,
    "20496e7374616772616d": 5281,
    "20496e646961": 5282,
    "2065737461": 5283,
    "2043616c69666f726e": 5284,
    "203730": 5285,
    "2064726167": 5286,
    "206272757368": 5287,
    "206e616d6573": 5288,
    "416e64": 5289,
    "20796f": 5290,
    "696c6c61": 5291,
    "207363686564": 5292,
    "2064657374726f79": 5293,
    "79656172": 5294,
    "2076616d6f73": 5295,
    "20d984": 5296,
    "c3a761": 5297,
    "20666f72676f74": 5298,
    "d0b8d0b5": 5299,
    "207261697365": 5300,
    "72656d65": 5301,
    "ed95b4": 5302,
    "2047697665": 5303,
    "20636f6e7461696e": 5304,
    "726162": 5305,
    "2067696674": 5306,
    "20d181d0bf": 5307,
    "2072657175657374": 5308,
    "2073687574": 5309,
    "2064656772656573": 5310,
    "2062656e6566697473": 5311,
    "d18bd0b5": 5312,
    "2073747564696573": 5313,
    "20656e6473": 5314,
    "2065766572797768657265": 5315,
    "206865726f": 5316,
    "6f7068": 5317,
    "65727279": 5318,
    "206d6174657269616c73": 5319,
    "656e6564": 5320,
    "4e41": 5321,
    "e58d": 5322,
    "206d7579": 5323,
    "20776f727365": 5324,
    "e4bb80": 5325,
    "204d6164": 5326,
    "206465636973696f6e73": 5327,
    "696f6e65": 5328,
    "20666f726569676e": 5329,
    "6c61756768746572": 5330,
    "69626572": 5331,
    "d0b5d0bdd0b8d18f": 5332,
    "e3858b": 5333,
    "207265616c697a6564": 5334,
    "2069676e": 5335,
    "207765616b": 5336,
    "20cebc": 5337,
    "20736361726564": 5338,
    "20617373756d": 5339,
    "414b": 5340,
    "efbf": 5341,
    "efbfbd": 5342,
    "20636f7665726564": 5343,
    "20536174": 5344,
    "20d0bed0bd": 5345,
    "20696e646976696475616c73": 5346,
    "20636f6d7061726564": 5347,
    "3131": 5348,
    "20416464": 5349,
    "69636c6573": 5350,
    "2063657274": 5351,
    "726172": 5352,
    "206272696566": 5353,
    "2061637469766974696573": 5354,
    "20666162": 5355,
    "626172": 5356,
    "20617374": 5357,
    "204f74686572": 5358,
    "20636c6173736573": 5359,
    "206f67": 5360,
    "206d697373696e67": 5361,
    "e381a0": 5362,
    "e99d": 5363,
    "77657273": 5364,
    "d7a9": 5365,
    "20696e74726f64756365": 5366,
    "206571756174696f6e": 5367,
    "e381bee38199": 5368,
    "206e6f6d": 5369,
    "207061696e74696e67": 5370,
    "757368696e67": 5371,
    "204150": 5372,
    "20656e636f7572616765": 5373,
    "2073686970": 5374,
    "6974746565": 5375,
    "697665727365": 5376,
    "6f7461": 5377,
    "6e616d": 5378,
    "e383bb": 5379,
    "206578657263697365": 5380,
    "20d0ad": 5381,
    "206e6173": 5382,
    "2074686f7573616e6473": 5383,
    "2043616c69666f726e6961": 5384,
    "20736573": 5385,
    "20726f77": 5386,
    "9e88": 5387,
    "2070616e64656d6963": 5388,
    "20736b696c6c": 5389,
    "62656c": 5390,
    "206469726563746f72": 5391,
    "206d696c6b": 5392,
    "206e7574": 5393,
    "206d6f74696f6e": 5394,
    "20636c6f736564": 5395,
    "e8a8": 5396,
    "20637265646974": 5397,
    "616872": 5398,
    "20636865657365": 5399,
    "20616c7465726e": 5400,
    "696d6174656c79": 5401,
    "2073757374": 5402,
    "20547261": 5403,
    "20676c6164": 5404,
    "20686967686c79": 5405,
    "207761": 5406,
    "20726564756365": 5407,
    "20626c65": 5408,
    "61646f72": 5409,
    "696e61746564": 5410,
    "696f6e6573": 5411,
    "6369656e74": 5412,
    "20646570656e64696e67": 5413,
    "2073686172696e67": 5414,
    "20636175676874": 5415,
    "7261656c": 5416,
    "206d656872": 5417,
    "2070617373696f6e": 5418,
    "e79b": 5419,
    "207275": 5420,
    "206661726d": 5421,
    "5449": 5422,
    "61766573": 5423,
    "20526f62": 5424,
    "2042726f": 5425,
    "206d6f746976": 5426,
    "7265746368": 5427,
    "72757074": 5428,
    "20426967": 5429,
    "20616c6c65": 5430,
    "20657474": 5431,
    "756273": 5432,
    "204a6170616e657365": 5433,
    "2048616c6c": 5434,
    "d0b8d0bbd0b8": 5435,
    "41554449424c45": 5436,
    "e7ac": 5437,
    "2063656c6c73": 5438,
    "696b61": 5439,
    "656c696e65": 5440,
    "696c6572": 5441,
    "20eca3": 5442,
    "20736b79": 5443,
    "494e41554449424c45": 5444,
    "656e6465": 5445,
    "6170746572": 5446,
    "2070696e": 5447,
    "20676174686572": 5448,
    "686f6c": 5449,
    "6c656374696f6e": 5450,
    "2073796e": 5451,
    "20706c7567": 5452,
    "726f756e64": 5453,
    "20756e6976657273697479": 5454,
    "686962": 5455,
    "2066616e746173746963": 5456,
    "6b6e": 5457,
    "20686f6c65": 5458,
    "2052656d656d626572": 5459,
    "696e6374": 5460,
    "616b73": 5461,
    "4348": 5462,
    "2062726f6b656e": 5463,
    "2073747261746567": 5464,
    "20616c697665": 5465,
    "2074616e6b": 5466,
    "2063617274": 5467,
    "7261746564": 5468,
    "726965": 5469,
    "2053746570": 5470,
    "2045766572797468696e67": 5471,
    "20626f756e64": 5472,
    "20736f627265": 5473,
    "20637573746f6d6572": 5474,
    "a18c": 5475,
    "757267": 5476,
    "2042696c6c": 5477,
    "4c61": 5478,
    "77686174": 5479,
    "207265616374696f6e": 5480,
    "2073657373696f6e": 5481,
    "20706c616e73": 5482,
    "20ec9db4eba087eab28c": 5483,
    "20646f776e6c6f6164": 5484,
    "ec99": 5485,
    "756572": 5486,
    "20636162": 5487,
    "20696e737472": 5488,
    "696679696e67": 5489,
    "204e696365": 5490,
    "207465616d73": 5491,
    "c4b16c": 5492,
    "20676f616c73": 5493,
    "69736368": 5494,
    "207472616e73706f7274": 5495,
    "20616e696d616c": 5496,
    "20636f737473": 5497,
    "2063616c6c73": 5498,
    "2073656872": 5499,
    "ec88": 5500,
    "7269616e": 5501,
    "206469616c": 5502,
    "2077656174686572": 5503,
    "e0b980": 5504,
    "20d0b2d0bed182": 5505,
    "20506c6179": 5506,
    "20736861726564": 5507,
    "20736d6f6f7468": 5508,
    "616261": 5509,
    "206c6561766573": 5510,
    "e0aea9": 5511,
    "20636f6e63656e74": 5512,
    "207368696674": 5513,
    "20eb9098": 5514,
    "20476f7665726e": 5515,
    "2064656d6f6e7374": 5516,
    "20627574746572": 5517,
    "20ec97ac": 5518,
    "20736174697366": 5519,
    "88ebac": 5520,
    "207265636f676e697a65": 5521,
    "204672656e6368": 5522,
    "20766f6c756d65": 5523,
    "c3a46e64": 5524,
    "d183d0bc": 5525,
    "20eca784": 5526,
    "204b656570": 5527,
    "6f7761": 5528,
    "6970706564": 5529,
    "d181d182d180": 5530,
    "20646574656374": 5531,
    "20cf83": 5532,
    "206c696674": 5533,
    "20636c6f74686573": 5534,
    "2053746f70": 5535,
    "c3b5": 5536,
    "6d6574": 5537,
    "20636c696e": 5538,
    "20617272": 5539,
    "667269656e64": 5540,
    "20737475636b": 5541,
    "5965": 5542,
    "68616e64": 5543,
    "756d61": 5544,
    "2073637269": 5545,
    "206675636b696e67": 5546,
    "63746f7273": 5547,
    "d7aa": 5548,
    "206a6f696e696e67": 5549,
    "206365747465": 5550,
    "20d8a3": 5551,
    "205768697465": 5552,
    "20696872": 5553,
    "cead": 5554,
    "e381ad": 5555,
    "20696e636c75646564": 5556,
    "6573736f": 5557,
    "2061636164": 5558,
    "62756d": 5559,
    "20736162": 5560,
    "20d0b4d0bbd18f": 5561,
    "e8bf99": 5562,
    "7566616374": 5563,
    "2052657075626c6963": 5564,
    "72696d": 5565,
    "2079656c6c6f77": 5566,
    "206c696d69746564": 5567,
    "544552": 5568,
    "205479": 5569,
    "206e6f746573": 5570,
    "76657374": 5571,
    "d0b8d0b7": 5572,
    "616c6564": 5573,
    "207068617365": 5574,
    "616e6461": 5575,
    "204d6f6d": 5576,
    "5249": 5577,
    "20696d6d6572": 5578,
    "6d616c": 5579,
    "20696e6a": 5580,
    "2079616e67": 5581,
    "756469626c65": 5582,
    "d0b0d0b3": 5583,
    "2073657474": 5584,
    "206d61676963": 5585,
    "20656e73757265": 5586,
    "20737072696e67": 5587,
    "2073686f636b": 5588,
    "20776865656c": 5589,
    "d0bed0b3d0b4d0b0": 5590,
    "e38288": 5591,
    "2063616e636572": 5592,
    "20726f6f74": 5593,
    "d090": 5594,
    "67656e6379": 5595,
    "20eb8d": 5596,
    "6969": 5597,
    "206f7574707574": 5598,
    "20636f6d6d6974": 5599,
    "20776f726b657273": 5600,
    "ec9584ec9a94": 5601,
    "20d181d0b0d0bc": 5602,
    "766579": 5603,
    "20706575": 5604,
    "20636976696c": 5605,
    "697363": 5606,
    "206272696e6773": 5607,
    "d180d0b0d0b2": 5608,
    "616e6961": 5609,
    "c481": 5610,
    "6372616674": 5611,
    "6d626f6c": 5612,
    "20696e74656c6c6967": 5613,
    "6269": 5614,
    "6163696e67": 5615,
    "796f75": 5616,
    "206265636f6d696e67": 5617,
    "20446572": 5618,
    "656d61": 5619,
    "e5b0b1e698af": 5620,
    "20696e67726564": 5621,
    "20636f6d6d616e64": 5622,
    "20757064617465": 5623,
    "207072656d": 5624,
    "206f70656e6564": 5625,
    "84a4": 5626,
    "d0b5d0bdd0b8d0b5": 5627,
    "2067617264": 5628,
    "2073746174656d656e74": 5629,
    "207363726577": 5630,
    "2070726f7465": 5631,
    "206361726473": 5632,
    "207461736b": 5633,
    "206576656e696e67": 5634,
    "20737469746368": 5635,
    "696e656e": 5636,
    "20426572": 5637,
    "6d61726b": 5638,
    "20446164": 5639,
    "20d0b5d181d182d18c": 5640,
    "20d79ed7": 5641,
    "ec9788": 5642,
    "2062616e": 5643,
    "20636c696d": 5644,
    "2066726565646f6d": 5645,
    "206e6f726d616c6c79": 5646,
    "d0b5d181d18c": 5647,
    "e5a6": 5648,
    "2070726f7669646564": 5649,
    "20ec9e90": 5650,
    "20ec9584eb8b88": 5651,
    "204b696d": 5652,
    "6965646572": 5653,
    "ec9d8c": 5654,
    "20636974697a": 5655,
    "2062696b65": 5656,
    "2062616b": 5657,
    "206e6f697365": 5658,
    "20636c696d617465": 5659,
    "697a6573": 5660,
    "e5be8c": 5661,
    "20696e6372656173696e67": 5662,
    "20544845": 5663,
    "206c697175": 5664,
    "20706572736f6e616c6c79": 5665,
    "6566": 5666,
    "72657370": 5667,
    "206c656773": 5668,
    "696e646572": 5669,
    "20706564": 5670,
    "20eba78e": 5671,
    "20646570656e64": 5672,
    "2076617269657479": 5673,
    "2049737261656c": 5674,
    "2077617368": 5675,
    "e586": 5676,
    "207175696574": 5677,
    "204a616d6573": 5678,
    "204a6577": 5679,
    "20666f7265766572": 5680,
    "20496e74": 5681,
    "20636f756e746572": 5682,
    "7572616e6365": 5683,
    "20416e79776179": 5684,
    "63617265": 5685,
    "204f6e6c79": 5686,
    "6369c3b36e": 5687,
    "616469": 5688,
    "204576": 5689,
    "eb8b88eab98c": 5690,
    "20ceb1": 5691,
    "20736c6f776c79": 5692,
    "20d0bed0b4": 5693,
    "206e6f7469636564": 5694,
    "696572656e": 5695,
    "2066656c6c": 5696,
    "20d091": 5697,
    "206dc3aa6d65": 5698,
    "207768656e65766572": 5699,
    "2129": 5700,
    "204879": 5701,
    "e5bc": 5702,
    "6f726473": 5703,
    "7573696f6e": 5704,
    "2053746172": 5705,
    "20ed98": 5706,
    "204d6163": 5707,
    "e4b88a": 5708,
    "6976656e": 5709,
    "20ec8b9c": 5710,
    "20ec9786": 5711,
    "20547572": 5712,
    "20676572": 5713,
    "726973": 5714,
    "2076657a": 5715,
    "20d0bbd18e": 5716,
    "20766572737573": 5717,
    "d8a7d8": 5718,
    "6f636f6c617465": 5719,
    "20706c616e65": 5720,
    "207a6f": 5721,
    "2073756974": 5722,
    "54686973": 5723,
    "206e657276": 5724,
    "20416363": 5725,
    "d183d0b6": 5726,
    "ec82ac": 5727,
    "6e68": 5728,
    "656d65": 5729,
    "2061757373": 5730,
    "206d656173": 5731,
    "207472c3a873": 5732,
    "cf89": 5733,
    "d181d0bbd0b8": 5734,
    "20417274": 5735,
    "205365636f6e64": 5736,
    "d0bed0bbd18cd0bad0be": 5737,
    "63686f": 5738,
    "6974656374": 5739,
    "d0b5d181d182": 5740,
    "20626f7373": 5741,
    "20696e636f6d65": 5742,
    "a0a4": 5743,
    "2073686164": 5744,
    "20617070726f707269": 5745,
    "204d616c": 5746,
    "6f7074": 5747,
    "20617274697374": 5748,
    "20706c617973": 5749,
    "6f7468657273": 5750,
    "20496e746572": 5751,
    "207669727573": 5752,
    "2068756e67": 5753,
    "20636f6e7374616e74": 5754,
    "20736372697074": 5755,
    "20736e6f77": 5756,
    "756c66": 5757,
    "6b6574": 5758,
    "2064657669636573": 5759,
    "206d6574616c": 5760,
    "6967687473": 5761,
    "ec84b8": 5762,
    "2073616c6573": 5763,
    "207665676574": 5764,
    "20636f6c6c656374696f6e": 5765,
    "20766961": 5766,
    "6b6572": 5767,
    "20676f7474656e": 5768,
    "4f57": 5769,
    "69c3a96e": 5770,
    "206163637572": 5771,
    "2077617665": 5772,
    "756c7479": 5773,
    "20416972": 5774,
    "206c656164696e67": 5775,
    "6963696e67": 5776,
    "2063656e7472616c": 5777,
    "2043687269737469616e": 5778,
    "6672": 5779,
    "20416c74686f756768": 5780,
    "20736f6e6773": 5781,
    "20666966": 5782,
    "d0bdd18bd185": 5783,
    "2062656c6f6e67": 5784,
    "6f737369626c65": 5785,
    "ecb0": 5786,
    "2070686f746f73": 5787,
    "69736c": 5788,
    "2072656c6178": 5789,
    "7361": 5790,
    "55534943": 5791,
    "eab7": 5792,
    "206d616e7566616374": 5793,
    "2054776974746572": 5794,
    "2064616e6765726f7573": 5795,
    "20687964": 5796,
    "6c656172": 5797,
    "69616e74": 5798,
    "20e280a6": 5799,
    "2073756464656e6c79": 5800,
    "206c61756768": 5801,
    "20616e676c65": 5802,
    "20476f74": 5803,
    "20776f7272696564": 5804,
    "d0bed0b5": 5805,
    "20706170": 5806,
    "204d617274": 5807,
    "656e6f": 5808,
    "2062617474657279": 5809,
    "20d0bfd0bed181": 5810,
    "206c6967687473": 5811,
    "2061726d73": 5812,
    "20416273": 5813,
    "6d6573": 5814,
    "e28093": 5815,
    "757365756d": 5816,
    "20746561": 5817,
    "204d6963": 5818,
    "20666f726d6572": 5819,
    "6f677261706879": 5820,
    "206170706c69636174696f6e73": 5821,
    "2044697265": 5822,
    "e784b6": 5823,
    "20666565646261636b": 5824,
    "69746368656e": 5825,
    "796f72756d": 5826,
    "756564": 5827,
    "696774": 5828,
    "c6b0e1bb": 5829,
    "6f736974696f6e": 5830,
    "2044656c": 5831,
    "20ed9598eb": 5832,
    "204261636b": 5833,
    "616473": 5834,
    "207072696d65": 5835,
    "eca3bc": 5836,
    "eca3a0": 5837,
    "d791": 5838,
    "206d7574": 5839,
    "5d2e": 5840,
    "20d097": 5841,
    "6c6f63": 5842,
    "6b696e": 5843,
    "20657870657274": 5844,
    "20616c7269676874": 5845,
    "756e6773": 5846,
    "20737570706c79": 5847,
    "206c656164657273686970": 5848,
    "20467261": 5849,
    "207479706963616c6c79": 5850,
    "2073656c": 5851,
    "207472656573": 5852,
    "203232": 5853,
    "686172": 5854,
    "20776f727374": 5855,
    "2062757379": 5856,
    "616e746f": 5857,
    "205570": 5858,
    "20426173": 5859,
    "2070726573656e746174696f6e": 5860,
    "20737472616e6765": 5861,
    "207468696e": 5862,
    "d182d0b5": 5863,
    "2076656869636c65": 5864,
    "20d0b4d0be": 5865,
    "63656c6c656e74": 5866,
    "3730": 5867,
    "207469726564": 5868,
    "20637269736973": 5869,
    "2074696e79": 5870,
    "617379": 5871,
    "2072616e": 5872,
    "e987": 5873,
    "20666f72636573": 5874,
    "20d0bed187": 5875,
    "206964656e74696679": 5876,
    "20617373657373": 5877,
    "d0b8d182d0b5": 5878,
    "5345": 5879,
    "206372656174697665": 5880,
    "e79f": 5881,
    "206465706172746d656e74": 5882,
    "20696e697469616c": 5883,
    "e68891e58091": 5884,
    "2044616d": 5885,
    "616b74": 5886,
    "76657265": 5887,
    "20696e66656374": 5888,
    "2070756d70": 5889,
    "e1baa1": 5890,
    "207669656c": 5891,
    "2072617265": 5892,
    "20646f74": 5893,
    "617368696f6e": 5894,
    "656d706c": 5895,
    "20666c6578": 5896,
    "206b6f6e": 5897,
    "20747275636b": 5898,
    "206c656374": 5899,
    "20706c6173746963": 5900,
    "6c6177": 5901,
    "206c696b6573": 5902,
    "20726f756768": 5903,
    "204d4154": 5904,
    "ed9e88": 5905,
    "20636f6d6d6572": 5906,
    "2061737365": 5907,
    "2063616b65": 5908,
    "20616374696f6e73": 5909,
    "2061646d": 5910,
    "206f7468657277697365": 5911,
    "204865616c7468": 5912,
    "20636f6c6c65": 5913,
    "e0b980e0b8": 5914,
    "20727562": 5915,
    "e5be97": 5916,
    "e694": 5917,
    "20736372": 5918,
    "207a756d": 5919,
    "2048696d": 5920,
    "206368616d70": 5921,
    "20636f6e6365726e6564": 5922,
    "20353030": 5923,
    "20706c617465": 5924,
    "204f7574": 5925,
    "20646f6e63": 5926,
    "2065717569706d656e74": 5927,
    "20746175676874": 5928,
    "6c6c6564": 5929,
    "20ed99": 5930,
    "697661": 5931,
    "206d6f746f72": 5932,
    "c2bb": 5933,
    "206775696465": 5934,
    "e589": 5935,
    "2073746f70706564": 5936,
    "20726174": 5937,
    "206c61626f72": 5938,
    "2061696d": 5939,
    "2070726570617265": 5940,
    "20d188": 5941,
    "2073686f6f74696e67": 5942,
    "616e6e6564": 5943,
    "6372697074": 5944,
    "20656e656d79": 5945,
    "20646570656e6473": 5946,
    "206e6176": 5947,
    "20626572": 5948,
    "206c616e6473": 5949,
    "20756e6976657273": 5950,
    "6975": 5951,
    "20666163746f72": 5952,
    "6f6b696e67": 5953,
    "20636172626f6e": 5954,
    "627574": 5955,
    "204c6f7665": 5956,
    "656c64": 5957,
    "20ceb5": 5958,
    "206761": 5959,
    "20c3a973": 5960,
    "206272656164": 5961,
    "20766f6c74": 5962,
    "ed8a": 5963,
    "207761737465": 5964,
    "206b65657073": 5965,
    "e68980": 5966,
    "2073746f72": 5967,
    "20686f6e6f72": 5968,
    "20756e6c657373": 5969,
    "20636f6c756d": 5970,
    "20eb8c80": 5971,
    "20706c616e7473": 5972,
    "59656168": 5973,
    "20696e636c75646573": 5974,
    "e4b8ad": 5975,
    "206f78": 5976,
    "2070657574": 5977,
    "eba78c": 5978,
    "ec8381": 5979,
    "6973747279": 5980,
    "e0b8b1": 5981,
    "204465706172746d656e74": 5982,
    "616e7461": 5983,
    "2066696e676572": 5984,
    "2073747265746368": 5985,
    "2073796d626f6c": 5986,
    "206e65696768626f72": 5987,
    "e6ac": 5988,
    "eab084": 5989,
    "7e7e": 5990,
    "20d182d18b": 5991,
    "2041626572": 5992,
    "6b6573": 5993,
    "206d617373697665": 5994,
    "204348": 5995,
    "2053616c": 5996,
    "d7a0": 5997,
    "e38292": 5998,
    "2064796e616d": 5999,
    "61636865": 6000,
    "20507265": 6001,
    "206d6f6e69746f72": 6002,
    "656e746564": 6003,
    "454f": 6004,
    "20726169736564": 6005,
    "697374696373": 6006,
    "daa9": 6007,
    "20766f75": 6008,
    "6974656e": 6009,
    "a1b0": 6010,
    "20627573696e6573736573": 6011,
    "206561726e": 6012,
    "206d6f62696c65": 6013,
    "6964616465": 6014,
    "2068616265": 6015,
    "7972": 6016,
    "6c696374": 6017,
    "20636f6e64756374": 6018,
    "206665646572616c": 6019,
    "20776f": 6020,
    "6275": 6021,
    "206e6f6e65": 6022,
    "207465616368657273": 6023,
    "20d8a7d984d8": 6024,
    "e98193": 6025,
    "6964656e7473": 6026,
    "d8a7d984": 6027,
    "207472656e64": 6028,
    "d0b5d0b6": 6029,
    "20616c62756d": 6030,
    "206d696368": 6031,
    "6261736564": 6032,
    "e0b8b5": 6033,
    "207472616e736974696f6e": 6034,
    "20d0bdd0be": 6035,
    "c3b56573": 6036,
    "686f7374": 6037,
    "656479": 6038,
    "2050726f66": 6039,
    "70616e": 6040,
    "696a6e": 6041,
    "206361706163697479": 6042,
    "756e646f": 6043,
    "20d791d7": 6044,
    "20627265617468": 6045,
    "20d0bcd0b5d0bd": 6046,
    "206dc3bc": 6047,
    "ed99": 6048,
    "20417574": 6049,
    "68696e67746f6e": 6050,
    "206e6f72": 6051,
    "206761696e": 6052,
    "706f696e74": 6053,
    "596573": 6054,
    "20d8aa": 6055,
    "204e61": 6056,
    "c3a572": 6057,
    "2069c3a7": 6058,
    "204d617279": 6059,
    "207370696e": 6060,
    "20616e7469": 6061,
    "e590a7": 6062,
    "20736f6d65686f77": 6063,
    "206c617773": 6064,
    "206d6f6d656e7473": 6065,
    "20677265": 6066,
    "206d6f766573": 6067,
    "20576f756c64": 6068,
    "2070726564696374": 6069,
    "20767261": 6070,
    "2032303139": 6071,
    "b684": 6072,
    "2066756e64616d656e74": 6073,
    "3235": 6074,
    "2070757265": 6075,
    "20776f77": 6076,
    "2069736c616e64": 6077,
    "20696e766573746d656e74": 6078,
    "2062617468": 6079,
    "205961": 6080,
    "20686172646572": 6081,
    "2074697073": 6082,
    "e597": 6083,
    "20656c656374726f6e": 6084,
    "20426f62": 6085,
    "20626f6e64": 6086,
    "6f64696573": 6087,
    "20417567": 6088,
    "2067696274": 6089,
    "206368616972": 6090,
    "207477696365": 6091,
    "776f6f64": 6092,
    "20636c6172": 6093,
    "206d61736b": 6094,
    "20686f6e6573746c79": 6095,
    "2032303138": 6096,
    "74696573": 6097,
    "272c": 6098,
    "2070656e73": 6099,
    "20737572707269736564": 6100,
    "20636f6d6d756e69636174696f6e": 6101,
    "e381a3e381a6": 6102,
    "20737072": 6103,
    "2077686f7365": 6104,
    "207374617273": 6105,
    "d790d7": 6106,
    "20e2808b": 6107,
    "2070726f7065726c79": 6108,
    "2067726577": 6109,
    "6f73696e67": 6110,
    "20646976657273": 6111,
    "4144": 6112,
    "20656d7074": 6113,
    "2065787072657373696f6e": 6114,
    "e1babf": 6115,
    "2050616c": 6116,
    "e3818a": 6117,
    "206a757374696365": 6118,
    "2070616972": 6119,
    "776f": 6120,
    "2073656174": 6121,
    "6f72746572": 6122,
    "206c696e6b73": 6123,
    "204d6572": 6124,
    "2072656e64": 6125,
    "d0bdd0bed0b5": 6126,
    "75706964": 6127,
    "2048656c": 6128,
    "204d61726368": 6129,
    "204c6f": 6130,
    "d181d18c": 6131,
    "206861736e": 6132,
    "206576616c75": 6133,
    "e3818f": 6134,
    "e5a4a9": 6135,
    "696c6f73": 6136,
    "2066756e64696e67": 6137,
    "2076656e": 6138,
    "75616e": 6139,
    "204d6173746572": 6140,
    "204f6c": 6141,
    "20467265": 6142,
    "20796170": 6143,
    "20536972": 6144,
    "736368": 6145,
    "206d697374616b65": 6146,
    "616d616e": 6147,
    "2064696e6e6572": 6148,
    "2057617368696e67746f6e": 6149,
    "206f7267616e697a6174696f6e73": 6150,
    "20d0b6d0b5": 6151,
    "6176696e67": 6152,
    "2076c3ad": 6153,
    "206269727468646179": 6154,
    "2062656172": 6155,
    "20d981": 6156,
    "206166666f7264": 6157,
    "20726576656e": 6158,
    "2072656c6174696f6e7368697073": 6159,
    "726f756768": 6160,
    "2054696d65": 6161,
    "20746167": 6162,
    "2053756e": 6163,
    "75617279": 6164,
    "20506f": 6165,
    "636172": 6166,
    "6162696c6974696573": 6167,
    "20707269736f6e": 6168,
    "206c6963": 6169,
    "eca095": 6170,
    "696464656e": 6171,
    "2073706563696573": 6172,
    "e9bb": 6173,
    "206669726d": 6174,
    "2073636f7265": 6175,
    "20646974": 6176,
    "207370656374": 6177,
    "2070656c": 6178,
    "20636f6d706c696361746564": 6179,
    "e6a8a3": 6180,
    "2072616e6b": 6181,
    "206f70706f73697465": 6182,
    "207069636b6564": 6183,
    "20d0bad0bed0bd": 6184,
    "656c6572": 6185,
    "206d6967": 6186,
    "20536c": 6187,
    "204e6574": 6188,
    "206e65636b": 6189,
    "204672616e6365": 6190,
    "20746563686e6963616c": 6191,
    "e0b8a1": 6192,
    "206d696c6573": 6193,
    "207072696d617279": 6194,
    "207365696e": 6195,
    "736573": 6196,
    "206c6175676873": 6197,
    "627261": 6198,
    "c59b6369": 6199,
    "7269616765": 6200,
    "206e6963": 6201,
    "6574657273": 6202,
    "20c3aa": 6203,
    "6f6c6f67696573": 6204,
    "204953": 6205,
    "726164": 6206,
    "75646f": 6207,
    "c4b16e64": 6208,
    "6d6172": 6209,
    "2065786368": 6210,
    "20636f6d7065746974696f6e": 6211,
    "206175737369": 6212,
    "2053657276": 6213,
    "2072656e74": 6214,
    "2063686f636f6c617465": 6215,
    "20776965646572": 6216,
    "206e6561726c79": 6217,
    "20737065656368": 6218,
    "20756e63": 6219,
    "20706172616d": 6220,
    "2042726974697368": 6221,
    "2072656d61696e": 6222,
    "e0b881": 6223,
    "757274": 6224,
    "20d8b9": 6225,
    "20637261636b": 6226,
    "61696c73": 6227,
    "2070726f6d697365": 6228,
    "20706179696e67": 6229,
    "69c39f": 6230,
    "206164617074": 6231,
    "d0b0d0bbd0b0": 6232,
    "206d6f76696573": 6233,
    "2077697265": 6234,
    "9fac": 6235,
    "e69c83": 6236,
    "207465727269626c65": 6237,
    "2073c3b3": 6238,
    "20706572666563746c79": 6239,
    "e591a2": 6240,
    "6f7264696e": 6241,
    "206ac3a1": 6242,
    "20696d706f737369626c65": 6243,
    "205468726565": 6244,
    "206e68": 6245,
    "207475726e696e67": 6246,
    "72756d": 6247,
    "2042656c": 6248,
    "696767": 6249,
    "20726573706f6e7369626c65": 6250,
    "d0b8d0b9": 6251,
    "20696e6372656469626c79": 6252,
    "7769": 6253,
    "69616e6f": 6254,
    "2068756d616e73": 6255,
    "20c387": 6256,
    "2073657474696e6773": 6257,
    "206a6f79": 6258,
    "6f6f74": 6259,
    "206465616c696e67": 6260,
    "696c6c6564": 6261,
    "20737572726f756e64": 6262,
    "20666f6c6c6f776564": 6263,
    "20706f737369626c79": 6264,
    "20696e697469": 6265,
    "7374656e": 6266,
    "2070726f73": 6267,
    "2063616e646964": 6268,
    "2061737369676e": 6269,
    "2076696f6c656e6365": 6270,
    "57656c6c": 6271,
    "2072697365": 6272,
    "5053": 6273,
    "2074616d62c3a96d": 6274,
    "20eb93a4": 6275,
    "69616e6365": 6276,
    "79616e": 6277,
    "20617564696f": 6278,
    "20426574": 6279,
    "20416d65726963616e73": 6280,
    "20417373": 6281,
    "69736368656e": 6282,
    "ec9e85": 6283,
    "20756c74696d6174656c79": 6284,
    "20706f6c6963": 6285,
    "206d616a6f72697479": 6286,
    "e98099e5808b": 6287,
    "2046696e616c6c79": 6288,
    "65726170": 6289,
    "206775617264": 6290,
    "204d415454": 6291,
    "2062726f776e": 6292,
    "d0bcd0b8": 6293,
    "20636861": 6294,
    "20486f6c79": 6295,
    "206e6572766f7573": 6296,
    "697070696e67": 6297,
    "c49964": 6298,
    "205361": 6299,
    "939ceb": 6300,
    "b680": 6301,
    "6c6965": 6302,
    "e79c9f": 6303,
    "206e7563": 6304,
    "20417072": 6305,
    "e99b": 6306,
    "204b6f726561": 6307,
    "65676f": 6308,
    "2043616e616461": 6309,
    "206bc3b66e6e656e": 6310,
    "20636f6d706172": 6311,
    "2067616e7a": 6312,
    "204d616973": 6313,
    "207468656d65": 6314,
    "206b69": 6315,
    "2064726177696e67": 6316,
    "617a6f6e": 6317,
    "204f6666": 6318,
    "7474": 6319,
    "2057696e64": 6320,
    "20746f646f73": 6321,
    "206f6276696f7573": 6322,
    "d0bdd0b0d18f": 6323,
    "494d": 6324,
    "20d0a0": 6325,
    "77656c6c": 6326,
    "20626c6f77": 6327,
    "20686f6f6b": 6328,
    "20636972636c65": 6329,
    "20ebb3b4": 6330,
    "20617263686974656374": 6331,
    "204b72": 6332,
    "2063c3b3": 6333,
    "2070726f74656374696f6e": 6334,
    "656761": 6335,
    "e587": 6336,
    "2077617463686564": 6337,
    "20616e7377657273": 6338,
    "2064696574": 6339,
    "69766f": 6340,
    "20706f77646572": 6341,
    "20796f757273": 6342,
    "2068696768657374": 6343,
    "e782ba": 6344,
    "4646": 6345,
    "e5ba": 6346,
    "20626f7973": 6347,
    "c3b6796c65": 6348,
    "206c756e6368": 6349,
    "e8ac9d": 6350,
    "204949": 6351,
    "2073657473": 6352,
    "206d6f6c65": 6353,
    "db81": 6354,
    "2077696e746572": 6355,
    "206c75636b79": 6356,
    "20726573706f6e736962696c697479": 6357,
    "207369676e616c": 6358,
    "20776f6e646572696e67": 6359,
    "206178": 6360,
    "20636f6f6b696e67": 6361,
    "d0bed0b2d0bed180": 6362,
    "6c6567": 6363,
    "20d0bfd0bed182": 6364,
    "207375727072697365": 6365,
    "2064656d6f6372": 6366,
    "206c6f6f70": 6367,
    "206a6167": 6368,
    "20637572696f7573": 6369,
    "206d61726b6574696e67": 6370,
    "d09d": 6371,
    "61726f6e": 6372,
    "204170706c65": 6373,
    "207669727475616c": 6374,
    "20313938": 6375,
    "6e6f6f6e": 6376,
    "204d6574": 6377,
    "d0bed181d182d0be": 6378,
    "d0bed0b1d18b": 6379,
    "697475": 6380,
    "204177": 6381,
    "20627579696e67": 6382,
    "2072657374617572616e74": 6383,
    "20427564": 6384,
    "20646f756274": 6385,
    "206772616e74": 6386,
    "2076657264": 6387,
    "2063617368": 6388,
    "20666163756c7479": 6389,
    "54686174": 6390,
    "2045696e": 6391,
    "e5a49a": 6392,
    "20776564": 6393,
    "69746e657373": 6394,
    "204d6167": 6395,
    "6e656c": 6396,
    "206e617272": 6397,
    "206163636964656e74": 6398,
    "206d656469756d": 6399,
    "656d656e7473": 6400,
    "2063726f77": 6401,
    "6e69676874": 6402,
    "ec9dbc": 6403,
    "e4b99f": 6404,
    "206c696272617279": 6405,
    "d0b0d18ed182": 6406,
    "2074616d6269c3a96e": 6407,
    "207265666572656e6365": 6408,
    "20666f75727468": 6409,
    "686f757365": 6410,
    "76656e74696f6e": 6411,
    "2066696c6c6564": 6412,
    "20436f7572": 6413,
    "696272": 6414,
    "206e67": 6415,
    "20646576656c6f70696e67": 6416,
    "2070726f7669646573": 6417,
    "20706f6c6c": 6418,
    "2074726166666963": 6419,
    "6172656e746c79": 6420,
    "e0ae9f": 6421,
    "20666f726d73": 6422,
    "20636c69656e74": 6423,
    "2067656e746c65": 6424,
    "206d757373": 6425,
    "20436f6e6772657373": 6426,
    "20496e6469616e": 6427,
    "6365616e": 6428,
    "2070696c": 6429,
    "20637a79": 6430,
    "73746f6f64": 6431,
    "757479": 6432,
    "206ec3a4": 6433,
    "207370656e64696e67": 6434,
    "20636f6e737472756374696f6e": 6435,
    "696e61756469626c65": 6436,
    "20eba788": 6437,
    "88ebacb4": 6438,
    "20ec839d": 6439,
    "6f6d61": 6440,
    "6f73656e": 6441,
    "61676f": 6442,
    "206c617267657374": 6443,
    "e3858be3858b": 6444,
    "20756e697665727365": 6445,
    "626573": 6446,
    "6f7361": 6447,
    "20d0b5d0b3d0be": 6448,
    "2064756465": 6449,
    "204d4152": 6450,
    "20696e64656564": 6451,
    "ceb5ceb9": 6452,
    "206d616e61676564": 6453,
    "2053686f756c64": 6454,
    "536f": 6455,
    "206170706c696564": 6456,
    "20666169726c79": 6457,
    "2044656e": 6458,
    "20616e616c79": 6459,
    "20636f6e7374616e746c79": 6460,
    "d181d0bf": 6461,
    "486f77": 6462,
    "20536179": 6463,
    "656e63696573": 6464,
    "205043": 6465,
    "2065676773": 6466,
    "e0aeb0": 6467,
    "20657468": 6468,
    "20456e74c3a36f": 6469,
    "696e6172": 6470,
    "696f74": 6471,
    "20637a": 6472,
    "204575726f7065616e": 6473,
    "e38188": 6474,
    "20414d": 6475,
    "2063c3a1": 6476,
    "20726164696f": 6477,
    "a78c": 6478,
    "2068696465": 6479,
    "e4bb8a": 6480,
    "205374617274": 6481,
    "20636c7562": 6482,
    "20486f7065": 6483,
    "206566666f727473": 6484,
    "6c7573696f6e": 6485,
    "20636974696573": 6486,
    "686f6e65": 6487,
    "2072656163686564": 6488,
    "2067756964": 6489,
    "726f6964": 6490,
    "206861726d": 6491,
    "2063757474696e67": 6492,
    "2062756c": 6493,
    "3138": 6494,
    "69657374": 6495,
    "204d6578": 6496,
    "2069726f6e": 6497,
    "e79fa5": 6498,
    "2061667465726e6f6f6e": 6499,
    "2068616c6c": 6500,
    "2070727a79": 6501,
    "20676f7368": 6502,
    "20696e666c75656e6365": 6503,
    "20d0b2d0b8d0b4": 6504,
    "20696e63726561736564": 6505,
    "204d696e6973746572": 6506,
    "206469736369": 6507,
    "205065746572": 6508,
    "2076657274": 6509,
    "206d656e75": 6510,
    "2073656c6c696e67": 6511,
    "7572616c6c79": 6512,
    "2071756f7465": 6513,
    "20c2a1": 6514,
    "20636f6e74696e756573": 6515,
    "6d707265": 6516,
    "20c59f6579": 6517,
    "69747574696f6e": 6518,
    "20d0bdd0b0d181": 6519,
    "636c6573": 6520,
    "204765726d616e": 6521,
    "637a79": 6522,
    "20d0a3": 6523,
    "4265": 6524,
    "206b69746368656e": 6525,
    "20547279": 6526,
    "697065": 6527,
    "2069636f6e": 6528,
    "617270": 6529,
    "2070726f766964696e67": 6530,
    "205472616e73": 6531,
    "20746563686e69717565": 6532,
    "2068c3a472": 6533,
    "20696e6672617374": 6534,
    "2073757370": 6535,
    "c3bc636b": 6536,
    "69636970": 6537,
    "20d095": 6538,
    "2063696e": 6539,
    "ec96b4eb": 6540,
    "2070727a": 6541,
    "20636f6d706f6e656e74": 6542,
    "20627965": 6543,
    "204269626c65": 6544,
    "697a6572": 6545,
    "4368": 6546,
    "20736f6c7574696f6e73": 6547,
    "206163636f6d706c": 6548,
    "2032303136": 6549,
    "4945": 6550,
    "205461": 6551,
    "20617373756d65": 6552,
    "206c6971756964": 6553,
    "20eba8b9": 6554,
    "2071756172746572": 6555,
    "2066656d616c65": 6556,
    "205468696e6b": 6557,
    "20737461747573": 6558,
    "6974757465": 6559,
    "20636f616368": 6560,
    "207265696e": 6561,
    "20636f6d62696e6174696f6e": 6562,
    "e8b7": 6563,
    "20546572": 6564,
    "206f626a65637473": 6565,
    "206469737472696374": 6566,
    "206d616b657570": 6567,
    "206d7572646572": 6568,
    "776173": 6569,
    "66656e": 6570,
    "20626f776c": 6571,
    "207075626c6973686564": 6572,
    "2073706f727473": 6573,
    "e381a1": 6574,
    "206964656e74697479": 6575,
    "207365656d6564": 6576,
    "20616374696e67": 6577,
    "d0bbd18e": 6578,
    "726978": 6579,
    "2075706c6f6164": 6580,
    "2068617374": 6581,
    "20626f6174": 6582,
    "204d6f64": 6583,
    "72696f": 6584,
    "203d": 6585,
    "206379636c65": 6586,
    "afb8": 6587,
    "206c6f7564": 6588,
    "7573746564": 6589,
    "636f6d696e67": 6590,
    "2032303137": 6591,
    "206f6e74": 6592,
    "206c656769736c": 6593,
    "20737472756374": 6594,
    "20536f6d657468696e67": 6595,
    "20636f6e666c696374": 6596,
    "207570706572": 6597,
    "206d616e61676572": 6598,
    "206d6f7274": 6599,
    "20667261": 6600,
    "20c4b0": 6601,
    "204d696b65": 6602,
    "20576f726b": 6603,
    "206ec3b3": 6604,
    "7068657265": 6605,
    "20ec82aceb": 6606,
    "204c616e64": 6607,
    "2066696c746572": 6608,
    "2070726f6d6f74": 6609,
    "e6b0": 6610,
    "e69982": 6611,
    "95bc": 6612,
    "207265636f7264696e67": 6613,
    "d79d": 6614,
    "206173736f636961746564": 6615,
    "206675656c": 6616,
    "756e646572": 6617,
    "20656c656374696f6e": 6618,
    "20656d706c6f79656573": 6619,
    "20436f6d70": 6620,
    "d180d183d0b3": 6621,
    "20576f": 6622,
    "726f6c": 6623,
    "207361766564": 6624,
    "20486f6e": 6625,
    "205669": 6626,
    "e58886": 6627,
    "616361": 6628,
    "70726574": 6629,
    "20776574": 6630,
    "20737475706964": 6631,
    "206c6164": 6632,
    "2066657374": 6633,
    "2077616b65": 6634,
    "20d0b8d0bd": 6635,
    "206772656174657374": 6636,
    "204a696d": 6637,
    "20736572696f75736c79": 6638,
    "20ecb9": 6639,
    "206665656c696e6773": 6640,
    "20333030": 6641,
    "696174696f6e": 6642,
    "20626561757479": 6643,
    "20ec9e98": 6644,
    "2073616e": 6645,
    "93a0": 6646,
    "202d28": 6647,
    "20636f6e7363696f7573": 6648,
    "20d0b4d0b5d0bb": 6649,
    "627965": 6650,
    "e799": 6651,
    "4d616e": 6652,
    "206c657473": 6653,
    "2073686f6573": 6654,
    "7964": 6655,
    "e4b988": 6656,
    "2064697361707065": 6657,
    "20436f756e7479": 6658,
    "2053636f7474": 6659,
    "2062757474": 6660,
    "20617175c3ad": 6661,
    "20636f6e666967": 6662,
    "726573706f6e64": 6663,
    "4c41554748": 6664,
    "a9eb8b88eb8ba4": 6665,
    "2064697669646564": 6666,
    "2061637175": 6667,
    "207a6f6e65": 6668,
    "206b6f6d6d": 6669,
    "61c3a7c3a36f": 6670,
    "eca79c": 6671,
    "637574": 6672,
    "203233": 6673,
    "206d6178696d756d": 6674,
    "726f67": 6675,
    "2072756e73": 6676,
    "20636f6d706f6e656e7473": 6677,
    "2061727269766564": 6678,
    "20636f6e666964656e74": 6679,
    "d180d0bed0b2": 6680,
    "20686569676874": 6681,
    "2070726f636564": 6682,
    "454d": 6683,
    "20d0add182d0be": 6684,
    "204d656e": 6685,
    "2074616c6b73": 6686,
    "20636f6e666964656e6365": 6687,
    "204368726973": 6688,
    "206c65616473": 6689,
    "206e6f7365": 6690,
    "66616c6c": 6691,
    "6262": 6692,
    "204e6f7468696e67": 6693,
    "69736572": 6694,
    "20696e646570656e64656e74": 6695,
    "206d696e6f72": 6696,
    "2073796d": 6697,
    "6c656e": 6698,
    "6369656e6365": 6699,
    "2066617368696f6e": 6700,
    "2073657875616c": 6701,
    "2062756e": 6702,
    "68657265": 6703,
    "20736f696c": 6704,
    "206469657365": 6705,
    "2073686170": 6706,
    "20656d707479": 6707,
    "206a6f75726e616c": 6708,
    "61676f6e": 6709,
    "205468656972": 6710,
    "207765656b656e64": 6711,
    "c3ad74": 6712,
    "206572726f72": 6713,
    "206e6172": 6714,
    "c3b8": 6715,
    "e8a9": 6716,
    "616e6379": 6717,
    "20ec958a": 6718,
    "20666f72657374": 6719,
    "206861636572": 6720,
    "206d6973736564": 6721,
    "e38195": 6722,
    "e58fafe4bba5": 6723,
    "206576696c": 6724,
    "2073746f72616765": 6725,
    "2073696e67696e67": 6726,
    "696e6861": 6727,
    "206b6e6f636b": 6728,
    "20696d7072657373": 6729,
    "20d0bed187d0b5d0bdd18c": 6730,
    "20476f6c64": 6731,
    "20537572": 6732,
    "20506f7274": 6733,
    "e58ebb": 6734,
    "204c6f6e64": 6735,
    "2066617a6572": 6736,
    "6f7479": 6737,
    "6f746f": 6738,
    "20616e78": 6739,
    "2057696c6c69616d": 6740,
    "206578697374696e67": 6741,
    "706c616365": 6742,
    "204344": 6743,
    "ceb3": 6744,
    "20436f6c6c656765": 6745,
    "6c6f72": 6746,
    "2045617374": 6747,
    "73656e": 6748,
    "66616368": 6749,
    "6f6674": 6750,
    "20657870657269656e636564": 6751,
    "206c6f766573": 6752,
    "696d6d": 6753,
    "20706f6c79": 6754,
    "2065737365": 6755,
    "eca4": 6756,
    "204772616e64": 6757,
    "e8a7": 6758,
    "63686572": 6759,
    "2076696374696d": 6760,
    "20476573": 6761,
    "d0bbd18c": 6762,
    "766973696f6e": 6763,
    "2074616c6c": 6764,
    "206c656e73": 6765,
    "20d0b7d0bdd0b0": 6766,
    "20426f7468": 6767,
    "20ecb2": 6768,
    "207375737461696e": 6769,
    "20617267756d656e74": 6770,
    "20666163746f7273": 6771,
    "206175746f6d61746963616c6c79": 6772,
    "206672756974": 6773,
    "206c69626572": 6774,
    "20616c65": 6775,
    "205072657373": 6776,
    "204261": 6777,
    "20d0b3d0be": 6778,
    "2068756e6472656473": 6779,
    "74686174": 6780,
    "2052696368": 6781,
    "20726563697065": 6782,
    "204954": 6783,
    "e887": 6784,
    "e1baa5": 6785,
    "206465736372696265": 6786,
    "20647269766572": 6787,
    "204f6374": 6788,
    "204d6174": 6789,
    "d0b4d0b5": 6790,
    "206d65616c": 6791,
    "206c6174657374": 6792,
    "20746865726170": 6793,
    "20636f6d70617265": 6794,
    "20416d617a6f6e": 6795,
    "20eca280": 6796,
    "20527573736961": 6797,
    "20737472696e67": 6798,
    "206b61": 6799,
    "20436f6d6d756e": 6800,
    "20646961": 6801,
    "4973": 6802,
    "206d696c6c696f6e73": 6803,
    "20636f72706f72": 6804,
    "20636f72726573706f6e64": 6805,
    "206669786564": 6806,
    "204a6f65": 6807,
    "d98e": 6808,
    "207669657773": 6809,
    "207269766572": 6810,
    "2073747564696f": 6811,
    "6967676572": 6812,
    "20666c61766f72": 6813,
    "2070726573656e6365": 6814,
    "20756e697473": 6815,
    "20736176696e67": 6816,
    "61766f7572": 6817,
    "20706573736f": 6818,
    "6f72697468": 6819,
    "2068657273": 6820,
    "204e6174": 6821,
    "6173696f6e": 6822,
    "204672616e6b": 6823,
    "d0bed188": 6824,
    "c58279": 6825,
    "ed84": 6826,
    "2065696e656d": 6827,
    "2066756e6374696f6e73": 6828,
    "756d616e": 6829,
    "206e6f727468": 6830,
    "20eca084": 6831,
    "20686f727365": 6832,
    "766964": 6833,
    "20706c656173757265": 6834,
    "d0b0d188": 6835,
    "c3a96573": 6836,
    "696e6461": 6837,
    "207461696c": 6838,
    "206578706c6f7265": 6839,
    "5354": 6840,
    "20636f6d6d65726369616c": 6841,
    "20447572696e67": 6842,
    "61726c": 6843,
    "5d3a": 6844,
    "666974": 6845,
    "207261746573": 6846,
    "e6b3": 6847,
    "4d55534943": 6848,
    "20686f7573696e67": 6849,
    "2065696e6572": 6850,
    "20736974756174696f6e73": 6851,
    "e68b": 6852,
    "206465637265": 6853,
    "20617070726f707269617465": 6854,
    "d0b5d0bdd0bdd0be": 6855,
    "252e": 6856,
    "20626163": 6857,
    "20776174": 6858,
    "656e73697479": 6859,
    "c3a468": 6860,
    "6b6e6f776e": 6861,
    "69747a": 6862,
    "20656d6f74696f6e616c": 6863,
    "6572766174696f6e": 6864,
    "20626c696e64": 6865,
    "3136": 6866,
    "ed83": 6867,
    "e5a4a7e5aeb6": 6868,
    "206a6f696e6564": 6869,
    "206c6f6361746564": 6870,
    "20d181d0bc": 6871,
    "61646173": 6872,
    "62657267": 6873,
    "2064657373": 6874,
    "2064656172": 6875,
    "6564656e": 6876,
    "636f73": 6877,
    "2061646f7074": 6878,
    "313030": 6879,
    "6f7765": 6880,
    "20436865636b": 6881,
    "69736d6f": 6882,
    "2073696d706c": 6883,
    "20616e677279": 6884,
    "20d0bcd0b5d0bdd18f": 6885,
    "2043616d": 6886,
    "20706164": 6887,
    "20617474656e64": 6888,
    "2073616d706c65": 6889,
    "e697a5": 6890,
    "20ec9b": 6891,
    "20494e": 6892,
    "756c6f7573": 6893,
    "20536172": 6894,
    "2053686f77": 6895,
    "20696e667261737472756374757265": 6896,
    "20417567757374": 6897,
    "206c6573736f6e": 6898,
    "206e696574": 6899,
    "e68e": 6900,
    "20666f69": 6901,
    "2062726f6b65": 6902,
    "7472": 6903,
    "e795": 6904,
    "203435": 6905,
    "20676577": 6906,
    "d183d0bf": 6907,
    "617469": 6908,
    "206d61696e7461696e": 6909,
    "2061727469737473": 6910,
    "696e676572": 6911,
    "e69da5": 6912,
    "6572766564": 6913,
    "4941": 6914,
    "20657175616c73": 6915,
    "206f7065726174696f6e": 6916,
    "696c6c79": 6917,
    "20eb82b4": 6918,
    "2063726f7764": 6919,
    "20696e7465726e616c": 6920,
    "207465737473": 6921,
    "20526f636b": 6922,
    "20436f6e73": 6923,
    "20eb8488ebacb4": 6924,
    "776172": 6925,
    "20736f75": 6926,
    "206368617274": 6927,
    "204a756e65": 6928,
    "20417072696c": 6929,
    "67656e74": 6930,
    "2076656e74": 6931,
    "207175616e64": 6932,
    "204b6f7265616e": 6933,
    "696d6f": 6934,
    "e789": 6935,
    "6964657273": 6936,
    "206d6f756e7461696e": 6937,
    "d181d182d0b0d0b2": 6938,
    "e69c88": 6939,
    "696a6b": 6940,
    "20646973636f7665726564": 6941,
    "2053756e64": 6942,
    "2053696c": 6943,
    "20736f6c6f": 6944,
    "c2b4": 6945,
    "207363686f6c": 6946,
    "2045616368": 6947,
    "e7b5": 6948,
    "2062617265": 6949,
    "20ed8c": 6950,
    "2076c3ad6465": 6951,
    "20696e6772656469656e7473": 6952,
    "20497473": 6953,
    "9dbceab3a0": 6954,
    "20ec8a": 6955,
    "cf8d": 6956,
    "204c6565": 6957,
    "207363617279": 6958,
    "207072696e636970": 6959,
    "2073706972697475616c": 6960,
    "ec85": 6961,
    "20486f6c64": 6962,
    "e6b292e69c89": 6963,
    "20646566696e65": 6964,
    "204c6573": 6965,
    "204e6f72": 6966,
    "20456e64": 6967,
    "20626c6f67": 6968,
    "20477265656e": 6969,
    "d0b0d0b5d182d181d18f": 6970,
    "70617274": 6971,
    "656c6573": 6972,
    "e4ba8b": 6973,
    "20556e646572": 6974,
    "207061727465": 6975,
    "203335": 6976,
    "20736563746f72": 6977,
    "2053657074": 6978,
    "2061757468": 6979,
    "e0aeae": 6980,
    "6f6d696e": 6981,
    "20636c69656e7473": 6982,
    "206369": 6983,
    "20467269646179": 6984,
    "65726173": 6985,
    "20747765": 6986,
    "756c61746564": 6987,
    "2063756c747572616c": 6988,
    "20d181d0b2d0be": 6989,
    "20eb8d94": 6990,
    "20c3ba": 6991,
    "207061726365": 6992,
    "e0aeb2": 6993,
    "20747261646974696f6e": 6994,
    "206a75646765": 6995,
    "2047656e6572616c": 6996,
    "2064657465726d696e65": 6997,
    "2049736e": 6998,
    "20504c": 6999,
    "6e65617468": 7000,
    "206d617474657273": 7001,
    "ed95b4ec": 7002,
    "215d": 7003,
    "d0b0d185": 7004,
    "20706f6f6c": 7005,
    "207661726961626c65": 7006,
    "2076616363696e65": 7007,
    "20636175736564": 7008,
    "2077657374": 7009,
    "20596570": 7010,
    "66617374": 7011,
    "207068696c6f73": 7012,
    "686f7261": 7013,
    "20636f6e74696e756564": 7014,
    "20756e666f7274756e6174656c79": 7015,
    "e3818d": 7016,
    "e695": 7017,
    "20666c69676874": 7018,
    "2077726170": 7019,
    "20687568": 7020,
    "204162736f6c7574656c79": 7021,
    "2070696e6b": 7022,
    "2072656d61696e73": 7023,
    "206ec3a9": 7024,
    "20666c65": 7025,
    "20536f6c": 7026,
    "206c6f73696e67": 7027,
    "20616c676f72697468": 7028,
    "207265717569726573": 7029,
    "20666f756e646174696f6e": 7030,
    "20427572": 7031,
    "2070726f66657373696f6e": 7032,
    "204d6964": 7033,
    "20ebad90": 7034,
    "63616e": 7035,
    "204d696c": 7036,
    "20796f756e676572": 7037,
    "2061707065617273": 7038,
    "7465726d": 7039,
    "ed9598eab3a0": 7040,
    "61636c65": 7041,
    "204c6f6e646f6e": 7042,
    "20656e67696e656572696e67": 7043,
    "e0b8a2": 7044,
    "20616476656e74": 7045,
    "ec84b8ec9a94": 7046,
    "20eab8b0": 7047,
    "204d616a": 7048,
    "d180d0b5d0bc": 7049,
    "696e6775": 7050,
    "20554b": 7051,
    "75726f": 7052,
    "737065": 7053,
    "2074656e74": 7054,
    "207265706f72746564": 7055,
    "20414c": 7056,
    "486579": 7057,
    "20eba790": 7058,
    "2064656e74": 7059,
    "204175737472616c6961": 7060,
    "204a616e75617279": 7061,
    "b3b4": 7062,
    "6167756573": 7063,
    "61727368": 7064,
    "726967": 7065,
    "207469656e65": 7066,
    "e0b8a3": 7067,
    "ceae": 7068,
    "206d616368656e": 7069,
    "756e7465": 7070,
    "d183d181": 7071,
    "20656c65637472": 7072,
    "207475746f7269616c": 7073,
    "20706c61636564": 7074,
    "20ec9db4eab1b0": 7075,
    "20436f756e63696c": 7076,
    "ed9688": 7077,
    "b0eba6ac": 7078,
    "616872656e": 7079,
    "20eab7b8eb9e98": 7080,
    "2070726f7665": 7081,
    "666f6c": 7082,
    "2071756572": 7083,
    "206368656170": 7084,
    "20466174686572": 7085,
    "20506f776572": 7086,
    "939c": 7087,
    "2070757273": 7088,
    "20657370": 7089,
    "20427265": 7090,
    "eab8b0eb": 7091,
    "6f6d6173": 7092,
    "e683b3": 7093,
    "d0b8d0bbd18c": 7094,
    "2067656874": 7095,
    "6f73746572": 7096,
    "eab3bc": 7097,
    "2066696c6573": 7098,
    "20d0a7": 7099,
    "62656c6c": 7100,
    "2077686f6d": 7101,
    "20eb98": 7102,
    "20657863656c6c656e74": 7103,
    "206461746162": 7104,
    "2067c3b6": 7105,
    "20eca784eca79c": 7106,
    "2062656c696566": 7107,
    "6a6574": 7108,
    "206a61636b": 7109,
    "207377696d": 7110,
    "7269616c": 7111,
    "756d696e": 7112,
    "617563": 7113,
    "20736f6c6c": 7114,
    "20657373656e7469616c": 7115,
    "ed9598eb8a94": 7116,
    "2065766f6c": 7117,
    "6368616674": 7118,
    "61696e65": 7119,
    "74686c6574": 7120,
    "20696e636f72": 7121,
    "207265706f727473": 7122,
    "20646566696e6974696f6e": 7123,
    "6b656c": 7124,
    "2063697263756d": 7125,
    "2070726f6475636564": 7126,
    "20d79b": 7127,
    "616e746963": 7128,
    "6e6574": 7129,
    "206177617264": 7130,
    "206475726368": 7131,
    "207472616e7370": 7132,
    "206d616c65": 7133,
    "a6aceb": 7134,
    "206d6f6f6e": 7135,
    "2047656f726765": 7136,
    "20666c79696e67": 7137,
    "69c3b3": 7138,
    "20736f7572636573": 7139,
    "20706c656e7479": 7140,
    "2044656d6f6372": 7141,
    "524f": 7142,
    "203030": 7143,
    "20736563757265": 7144,
    "20426972": 7145,
    "7261696e": 7146,
    "207a7572": 7147,
    "20656666696369656e74": 7148,
    "20726570656174": 7149,
    "206d6574686f6473": 7150,
    "2063616c6d": 7151,
    "20646973637573736564": 7152,
    "20ec9e88eb8a94": 7153,
    "20736572766572": 7154,
    "616e6965": 7155,
    "20496e7374656164": 7156,
    "20696465616c": 7157,
    "20636f6e76656e": 7158,
    "20686f70696e67": 7159,
    "20546f72": 7160,
    "206465707468": 7161,
    "2068656176656e": 7162,
    "454e4345": 7163,
    "206861626974": 7164,
    "67726164": 7165,
    "20666c6167": 7166,
    "20696e65": 7167,
    "206b68": 7168,
    "204c49": 7169,
    "20666163696e67": 7170,
    "204155": 7171,
    "2054696d": 7172,
    "2067656d": 7173,
    "204a756c": 7174,
    "20656c61": 7175,
    "697a7a61": 7176,
    "2066656c6c6f77": 7177,
    "207175656c": 7178,
    "2073706f6b65": 7179,
    "20636974697a656e73": 7180,
    "756765": 7181,
    "e983bd": 7182,
    "207061676573": 7183,
    "2066617363": 7184,
    "2072656c6967696f7573": 7185,
    "6174656e": 7186,
    "2063686170746572": 7187,
    "2056616c": 7188,
    "20636f6e73756c74": 7189,
    "204d696c6c": 7190,
    "676c": 7191,
    "6f706572": 7192,
    "20696e66696e": 7193,
    "206d61727269616765": 7194,
    "206d65646963696e65": 7195,
    "20d0b4d0b2": 7196,
    "20646f6773": 7197,
    "20696e737472756d656e74": 7198,
    "204578616374": 7199,
    "c3a16e": 7200,
    "2032303231": 7201,
    "20666572": 7202,
    "207765616c7468": 7203,
    "206772616465": 7204,
    "d18bd185": 7205,
    "206372696d65": 7206,
    "20746872656164": 7207,
    "2065737361": 7208,
    "2077696e65": 7209,
    "636f686f6c": 7210,
    "706861": 7211,
    "e0b887": 7212,
    "6f677565": 7213,
    "20696e737572616e6365": 7214,
    "61727261746f72": 7215,
    "2053657074656d626572": 7216,
    "20766964": 7217,
    "20537069726974": 7218,
    "2067657374": 7219,
    "205275737369616e": 7220,
    "2070726f70657274696573": 7221,
    "2061727469636c65": 7222,
    "20756e6465726e65617468": 7223,
    "796572": 7224,
    "206a6f696e74": 7225,
    "2072656c61746976656c79": 7226,
    "20696e6368": 7227,
    "2064657370697465": 7228,
    "2047726565": 7229,
    "20636c6173736963": 7230,
    "20737570706f7274696e67": 7231,
    "20696e737472756374": 7232,
    "6c7573697665": 7233,
    "20646961676e": 7234,
    "e68a": 7235,
    "2061646d696e697374726174696f6e": 7236,
    "d0b0d0b1d0bed182": 7237,
    "204f70656e": 7238,
    "e68980e4bba5": 7239,
    "20d0bfd0bed0ba": 7240,
    "20646f6c6c6172": 7241,
    "20636f6e73657175": 7242,
    "6f626572": 7243,
    "204765726d616e79": 7244,
    "2074657272": 7245,
    "205155": 7246,
    "20d093": 7247,
    "e7be": 7248,
    "207374726f6e676572": 7249,
    "c999": 7250,
    "20d98a": 7251,
    "206950686f6e65": 7252,
    "20666162726963": 7253,
    "c3bc68": 7254,
    "20656e656d": 7255,
    "e6af": 7256,
    "2073756274": 7257,
    "4545": 7258,
    "6f6e6465": 7259,
    "2063726577": 7260,
    "2072656d6f766564": 7261,
    "206c616479": 7262,
    "20706f74656e7469616c6c79": 7263,
    "20d09dd0be": 7264,
    "79616c": 7265,
    "2073796d7074": 7266,
    "2061726d79": 7267,
    "20696e74726f6475636564": 7268,
    "746573": 7269,
    "2061737065637473": 7270,
    "3134": 7271,
    "204c6f75": 7272,
    "2029": 7273,
    "206465706c6f79": 7274,
    "706574": 7275,
    "2068616e": 7276,
    "205761746368": 7277,
    "20776561706f6e73": 7278,
    "207068656e": 7279,
    "207265676973746572": 7280,
    "2065696e66616368": 7281,
    "2073706f7274": 7282,
    "20627269646765": 7283,
    "20696e6e6572": 7284,
    "206d696e696d756d": 7285,
    "207769746e657373": 7286,
    "2065736f": 7287,
    "2076696c6c616765": 7288,
    "206f776e6572": 7289,
    "a6aceab3a0": 7290,
    "2073637265616d": 7291,
    "696c6564": 7292,
    "207069746368": 7293,
    "627275": 7294,
    "20616476616e6365": 7295,
    "e4b88de698af": 7296,
    "20737570706f7365": 7297,
    "20417474": 7298,
    "d0b5d182d181d18f": 7299,
    "20646966666572656e636573": 7300,
    "616b6564": 7301,
    "20696e74657270726574": 7302,
    "c3a6": 7303,
    "69656e646f": 7304,
    "206162736f6c": 7305,
    "20d0b1d183d0b4d0b5d182": 7306,
    "20ebb2": 7307,
    "20747269616c": 7308,
    "207468696e6b73": 7309,
    "6c79696e67": 7310,
    "63657074696f6e": 7311,
    "204166726963616e": 7312,
    "206368656d6963616c": 7313,
    "2074617065": 7314,
    "20636f6e766572736174696f6e73": 7315,
    "20646973747269627574696f6e": 7316,
    "7469": 7317,
    "204149": 7318,
    "20666c617368": 7319,
    "20756e64657273746f6f64": 7320,
    "20476f7665726e6d656e74": 7321,
    "e5b08f": 7322,
    "213f": 7323,
    "20536b": 7324,
    "eab1b0eb": 7325,
    "72696572": 7326,
    "5453": 7327,
    "204163636f7264696e67": 7328,
    "d18ed182": 7329,
    "2073706f6e73": 7330,
    "d182d0bed0b1d18b": 7331,
    "2076616c75": 7332,
    "6572656d": 7333,
    "696368746967": 7334,
    "20726573697374616e6365": 7335,
    "2047616c": 7336,
    "67657279": 7337,
    "20626567696e73": 7338,
    "20616476616e636564": 7339,
    "2072656c6576616e74": 7340,
    "20706f6c6974696373": 7341,
    "2046616d": 7342,
    "20c3a76f6b": 7343,
    "204e65766572": 7344,
    "696c6c696e67": 7345,
    "20666f6f7462616c6c": 7346,
    "d0b8d0b8": 7347,
    "204944": 7348,
    "20416672696361": 7349,
    "2066696e67657273": 7350,
    "20d0b1d0bed0bbd18c": 7351,
    "20c3a1": 7352,
    "20636c6970": 7353,
    "204c6174": 7354,
    "e38284": 7355,
    "20eca780eab888": 7356,
    "65737365": 7357,
    "20766f6f72": 7358,
    "206173696465": 7359,
    "e69e": 7360,
    "20746f77617264": 7361,
    "20626174": 7362,
    "2076616c6964": 7363,
    "204d656e73": 7364,
    "20636f6d706c65746564": 7365,
    "c4b1c49f": 7366,
    "20706f6463617374": 7367,
    "20426f6e": 7368,
    "db92": 7369,
    "204a756c79": 7370,
    "696c61": 7371,
    "207061636b616765": 7372,
    "2070756c6c6564": 7373,
    "63686172": 7374,
    "204d656c": 7375,
    "6f6973": 7376,
    "20736f757468": 7377,
    "20eb94": 7378,
    "20696d706f7274616e6365": 7379,
    "2070757368696e67": 7380,
    "2069736f6c": 7381,
    "207374616e6473": 7382,
    "63696c6c": 7383,
    "e4bc": 7384,
    "20f09f": 7385,
    "6f7269": 7386,
    "eab081": 7387,
    "20686f6d6573": 7388,
    "20636f6e6365726e73": 7389,
    "2062697a": 7390,
    "e5bd": 7391,
    "626965": 7392,
    "20626973": 7393,
    "2067656172": 7394,
    "204d53": 7395,
    "2068756e": 7396,
    "204d617474": 7397,
    "e1baa3": 7398,
    "736579": 7399,
    "20536563726574": 7400,
    "206f6464": 7401,
    "204d6178": 7402,
    "6f6c6c79": 7403,
    "666f7264": 7404,
    "205348": 7405,
    "207265706c616365": 7406,
    "206e61766967": 7407,
    "20696e69": 7408,
    "d0b8d18f": 7409,
    "206769616e74": 7410,
    "206d616e64": 7411,
    "2048617070": 7412,
    "54494f4e": 7413,
    "67756e": 7414,
    "69616d6f": 7415,
    "ec9e85eb8b88eb8ba4": 7416,
    "20676170": 7417,
    "20c3aa747265": 7418,
    "20636c617373726f6f6d": 7419,
    "20687970": 7420,
    "616b69": 7421,
    "e8ae": 7422,
    "697374657273": 7423,
    "61636b73": 7424,
    "20d181d0be": 7425,
    "20627567": 7426,
    "2067726176": 7427,
    "616d696e": 7428,
    "206576657279646179": 7429,
    "20eca1b0": 7430,
    "2067617264656e": 7431,
    "63656d626572": 7432,
    "206573746f": 7433,
    "e5978e": 7434,
    "d8ac": 7435,
    "9fb0": 7436,
    "e581": 7437,
    "20726f6d": 7438,
    "20eca09ceab080": 7439,
    "2066616c6c696e67": 7440,
    "206661756c74": 7441,
    "656c6c79": 7442,
    "206368657374": 7443,
    "20d0bbd0b8": 7444,
    "20706f7461746f": 7445,
    "206275696c64696e6773": 7446,
    "206f7065726174696e67": 7447,
    "2070617265": 7448,
    "7772": 7449,
    "446f6e": 7450,
    "20466f7572": 7451,
    "2076756c": 7452,
    "206cc3a1": 7453,
    "206672757374": 7454,
    "2044616e6e": 7455,
    "6f6c6573": 7456,
    "6e7961": 7457,
    "20ecb6": 7458,
    "20d180d0b0d181": 7459,
    "d79b": 7460,
    "2061c3ad": 7461,
    "776f7264": 7462,
    "20776561706f6e": 7463,
    "206f6274": 7464,
    "2046616c6c": 7465,
    "205374657665": 7466,
    "206d69786564": 7467,
    "20706f6465": 7468,
    "204153": 7469,
    "204c6567": 7470,
    "2064657363": 7471,
    "2073706c6974": 7472,
    "20656d657267656e6379": 7473,
    "2053696e67": 7474,
    "2070726f666974": 7475,
    "207479706963616c": 7476,
    "20446f6e63": 7477,
    "20616e6e6f756e6365": 7478,
    "20546578": 7479,
    "2073616372": 7480,
    "7465726e616c": 7481,
    "20636f6d6d6974746565": 7482,
    "69676f": 7483,
    "206469616d": 7484,
    "70686173": 7485,
    "2064656665": 7486,
    "2050726f66657373": 7487,
    "206465636c": 7488,
    "d183d180": 7489,
    "3232": 7490,
    "6f6c66": 7491,
    "204d6f6e64": 7492,
    "7579": 7493,
    "206179": 7494,
    "206c656d": 7495,
    "206c6f76656c79": 7496,
    "20436f756c64": 7497,
    "2067756172": 7498,
    "4848": 7499,
    "206361726566756c6c79": 7500,
    "204c697374656e": 7501,
    "20d0bad180": 7502,
    "20796f757468": 7503,
    "205468657265666f7265": 7504,
    "20647265616d73": 7505,
    "204a656666": 7506,
    "3f5d": 7507,
    "20eb88": 7508,
    "4441": 7509,
    "20626f64696573": 7510,
    "617578": 7511,
    "20746563686e6971756573": 7512,
    "206d656368616e69736d": 7513,
    "d793": 7514,
    "20d0bed0bdd0b8": 7515,
    "20646573697265": 7516,
    "c3ae": 7517,
    "20566f": 7518,
    "71756573": 7519,
    "20d183d0b6d0b5": 7520,
    "2057686f61": 7521,
    "2047616d65": 7522,
    "2068616c": 7523,
    "616e697368": 7524,
    "20707261637469636573": 7525,
    "353030": 7526,
    "20736f727473": 7527,
    "757073": 7528,
    "61746566756c": 7529,
    "2068657273656c66": 7530,
    "20677569746172": 7531,
    "2070726f706f73": 7532,
    "207369746573": 7533,
    "206265616368": 7534,
    "20d7a2": 7535,
    "e7acac": 7536,
    "d0bdd183": 7537,
    "206472616d": 7538,
    "204e6f7665": 7539,
    "5645": 7540,
    "72616e74": 7541,
    "20706c6f74": 7542,
    "20ec97aceab8b0": 7543,
    "204361": 7544,
    "2065737461626c6973686564": 7545,
    "2032303135": 7546,
    "20696e737069726564": 7547,
    "20616e6e6f756e636564": 7548,
    "e4b8aa": 7549,
    "20d182d180": 7550,
    "203236": 7551,
    "20766f79": 7552,
    "2074656368": 7553,
    "eca081": 7554,
    "2070726f636573736573": 7555,
    "6f6e746f": 7556,
    "2050616e": 7557,
    "207261706964": 7558,
    "697374616e": 7559,
    "20313937": 7560,
    "2072656c6967696f6e": 7561,
    "203238": 7562,
    "20736d696c65": 7563,
    "20626162": 7564,
    "20daa9": 7565,
    "20566972": 7566,
    "207363686564756c65": 7567,
    "20657865637574": 7568,
    "2070726f6e": 7569,
    "d18d": 7570,
    "20d09dd183": 7571,
    "6d75736963": 7572,
    "ec9b90": 7573,
    "2067616e": 7574,
    "ec8ba0": 7575,
    "2064656661756c74": 7576,
    "2062656d": 7577,
    "d989": 7578,
    "20666f72636564": 7579,
    "204f6276696f75736c79": 7580,
    "2073746f6e65": 7581,
    "20746965": 7582,
    "206472696e6b696e67": 7583,
    "20736572766564": 7584,
    "4361757365": 7585,
    "20636f6e666572656e6365": 7586,
    "2045786163746c79": 7587,
    "e38388": 7588,
    "a09c": 7589,
    "ec9980": 7590,
    "205261": 7591,
    "2066616b65": 7592,
    "2064696666": 7593,
    "e381a9": 7594,
    "206368616c6c656e67696e67": 7595,
    "20eca491": 7596,
    "cf87": 7597,
    "e4bb80e9babc": 7598,
    "20696e74656c6c6967656e6365": 7599,
    "72657465": 7600,
    "207374756479696e67": 7601,
    "206170706f696e74": 7602,
    "2074616e": 7603,
    "20d0b8d0bc": 7604,
    "206375727665": 7605,
    "205465616d": 7606,
    "20417a": 7607,
    "20d0b7d0b4": 7608,
    "204d75736963": 7609,
    "6669656c64": 7610,
    "69726174696f6e": 7611,
    "206661696c6564": 7612,
    "206e6f76656c": 7613,
    "20646966666572656e746c79": 7614,
    "20657363617065": 7615,
    "20596f": 7616,
    "204f63746f626572": 7617,
    "c4b1796f72": 7618,
    "20646573637269626564": 7619,
    "20636f6e76657274": 7620,
    "6163656d656e74": 7621,
    "20686f74656c": 7622,
    "69736174696f6e": 7623,
    "2073756973": 7624,
    "e38191": 7625,
    "e5ad90": 7626,
    "e6808e": 7627,
    "2077616c6b6564": 7628,
    "323030": 7629,
    "206e65696768626f72686f6f64": 7630,
    "697370": 7631,
    "204c6f73": 7632,
    "2068696464656e": 7633,
    "203237": 7634,
    "d0bbd0b5": 7635,
    "20706872": 7636,
    "2049736c616e64": 7637,
    "20537472656574": 7638,
    "656e6461": 7639,
    "68697073": 7640,
    "6f73757265": 7641,
    "20646566696e6564": 7642,
    "e0b8a7": 7643,
    "2076696461": 7644,
    "206c6162656c": 7645,
    "204576657279626f6479": 7646,
    "206a6f6b65": 7647,
    "69616f": 7648,
    "d8a7d986": 7649,
    "206174686c6574": 7650,
    "2e2e2e22": 7651,
    "2046697265": 7652,
    "446f": 7653,
    "20646566656e7365": 7654,
    "20656e7465727461696e": 7655,
    "c3a174": 7656,
    "20706f6c6963696573": 7657,
    "20616c636f686f6c": 7658,
    "20456e67696e65": 7659,
    "2067616c": 7660,
    "204a7564": 7661,
    "20766f6c756e7465": 7662,
    "69636b73": 7663,
    "657461": 7664,
    "616774": 7665,
    "20d795": 7666,
    "206dc3b6": 7667,
    "3133": 7668,
    "20656e636f756e": 7669,
    "206568": 7670,
    "206f72616e6765": 7671,
    "206162736f72": 7672,
    "20737061636573": 7673,
    "204e6f76656d626572": 7674,
    "eab5ac": 7675,
    "696174": 7676,
    "2074616d": 7677,
    "636b6e6f77": 7678,
    "2073746f726d": 7679,
    "204469726563746f72": 7680,
    "20707265676e": 7681,
    "20ec9dbc": 7682,
    "20d0bed0bf": 7683,
    "207265736f75726365": 7684,
    "2062617264": 7685,
    "6e6577": 7686,
    "20446563656d626572": 7687,
    "75697473": 7688,
    "207765696c": 7689,
    "20636f6e737472756374": 7690,
    "7369": 7691,
    "6e6963": 7692,
    "20666c6f7572": 7693,
    "207265737472696374": 7694,
    "c3bc74": 7695,
    "20656e746972656c79": 7696,
    "20627265616b696e67": 7697,
    "656e746c696368": 7698,
    "207477656e7479": 7699,
    "20636175736573": 7700,
    "20656c6576": 7701,
    "20537072": 7702,
    "20496e7465726e6574": 7703,
    "206b697373": 7704,
    "206f7065726174696f6e73": 7705,
    "737a79": 7706,
    "20eb8a": 7707,
    "20736369656e7469737473": 7708,
    "2067726f776e": 7709,
    "206f776e657273": 7710,
    "6f757473": 7711,
    "20636f7572736573": 7712,
    "20757375616c": 7713,
    "20696e6e": 7714,
    "207472616e736d": 7715,
    "c3b16f": 7716,
    "206e75657374": 7717,
    "d0bad0bed0b2": 7718,
    "2063617465676f7279": 7719,
    "204c696665": 7720,
    "20506c7573": 7721,
    "2061746d6f73": 7722,
    "7768696c65": 7723,
    "207265636f726473": 7724,
    "206465c49f": 7725,
    "eb8ba4eab3a0": 7726,
    "20ec82aceb9e": 7727,
    "20726571756972656d656e7473": 7728,
    "696e6e": 7729,
    "20696d6d6967": 7730,
    "20646565706572": 7731,
    "e7b4": 7732,
    "2061707073": 7733,
    "20636f6c6c656167756573": 7734,
    "c5bc79": 7735,
    "206f6666657273": 7736,
    "2074c3a1": 7737,
    "20636f6c756d6e": 7738,
    "6c617564": 7739,
    "4952": 7740,
    "204d73": 7741,
    "2065786368616e6765": 7742,
    "6c6173": 7743,
    "204c6177": 7744,
    "204a6f6e": 7745,
    "69737365": 7746,
    "726f67656e": 7747,
    "206d6f69": 7748,
    "d797": 7749,
    "2073656e64696e67": 7750,
    "2068656c6c6f": 7751,
    "d0b5d0b5": 7752,
    "c59bc487": 7753,
    "2073756363656564": 7754,
    "20737566666572696e67": 7755,
    "20616476657274": 7756,
    "20eca3bc": 7757,
    "e79fa5e98193": 7758,
    "207265636f": 7759,
    "c4b16ec4b1": 7760,
    "20d0bad0bed0bc": 7761,
    "616c6c6579": 7762,
    "206661696c757265": 7763,
    "69656a": 7764,
    "20eb958c": 7765,
    "206472756773": 7766,
    "206375616e646f": 7767,
    "20ec96b4eb96": 7768,
    "2041626f7574": 7769,
    "207175616e646f": 7770,
    "3930": 7771,
    "20466564": 7772,
    "3137": 7773,
    "5368": 7774,
    "696e686f": 7775,
    "2053756e646179": 7776,
    "205068696c": 7777,
    "2061636164656d6963": 7778,
    "20496e63": 7779,
    "206d61696e74656e": 7780,
    "e587ba": 7781,
    "20726577617264": 7782,
    "657264": 7783,
    "20636f6d6d6974746564": 7784,
    "ec8aa4": 7785,
    "d0b3d180": 7786,
    "207374616e6461726473": 7787,
    "206b616c": 7788,
    "20696e74656e74696f6e": 7789,
    "205a68": 7790,
    "2061636b6e6f77": 7791,
    "e4bf": 7792,
    "203d3d3d": 7793,
    "6f6779": 7794,
    "e5a7": 7795,
    "2066696c6d73": 7796,
    "69736b": 7797,
    "207465657468": 7798,
    "207374727567676c65": 7799,
    "7264": 7800,
    "75656e": 7801,
    "2064697373": 7802,
    "20446172": 7803,
    "616d79": 7804,
    "20656e656d696573": 7805,
    "2076656c6f63": 7806,
    "2043616c6c": 7807,
    "756d6273": 7808,
    "d0b8d182d0b5d0bbd18c": 7809,
    "206f6365616e": 7810,
    "c3a964": 7811,
    "ec9ab0": 7812,
    "207472656d": 7813,
    "69656e746f": 7814,
    "d0b5d188d18c": 7815,
    "6666696369656e74": 7816,
    "20626f74746c65": 7817,
    "20696e737469747574696f6e": 7818,
    "65737479": 7819,
    "2048616e": 7820,
    "686162": 7821,
    "eb8a98": 7822,
    "20617272657374": 7823,
    "e98284": 7824,
    "206c657474657273": 7825,
    "6f756e6365": 7826,
    "ed8c": 7827,
    "416e": 7828,
    "2063726561746573": 7829,
    "20636c6f636b": 7830,
    "2064656274": 7831,
    "20616e6369656e74": 7832,
    "696669636174696f6e73": 7833,
    "6769": 7834,
    "427574": 7835,
    "205475": 7836,
    "6b6c": 7837,
    "20626f72646572": 7838,
    "206f6f6b": 7839,
    "20426179": 7840,
    "65737461": 7841,
    "20ebb3b4ec": 7842,
    "20777261": 7843,
    "7072656e65": 7844,
    "20eab28c": 7845,
    "616e676c65": 7846,
    "2062656c6965766564": 7847,
    "69656e6379": 7848,
    "616b61": 7849,
    "20637269746963": 7850,
    "20626f6d62": 7851,
    "2068616d": 7852,
    "20d09b": 7853,
    "eab5ad": 7854,
    "2047757973": 7855,
    "726f736f6674": 7856,
    "206372696d": 7857,
    "65746368": 7858,
    "415252": 7859,
    "207369676874": 7860,
    "d0b8d0bdd0b0": 7861,
    "2061696e": 7862,
    "e1bb91": 7863,
    "6973636865": 7864,
    "20617578": 7865,
    "206e756d6572": 7866,
    "2073757276697665": 7867,
    "416c6c": 7868,
    "4243": 7869,
    "20737a": 7870,
    "9faceb": 7871,
    "206a616d": 7872,
    "20436f757274": 7873,
    "20616c6c6573": 7874,
    "2074726967676572": 7875,
    "d09e": 7876,
    "20666f726d6174": 7877,
    "2064656361646573": 7878,
    "20636573": 7879,
    "207369676e73": 7880,
    "20726f626f74": 7881,
    "20436875726368": 7882,
    "20617a": 7883,
    "20736f7570": 7884,
    "205465786173": 7885,
    "7574656e": 7886,
    "20d187d182d0bed0b1d18b": 7887,
    "206e6569676862": 7888,
    "96d794": 7889,
    "20636f6d6d756e6963617465": 7890,
    "c5a1": 7891,
    "20656c696d696e": 7892,
    "206672657175656e6379": 7893,
    "6865726e": 7894,
    "69646f73": 7895,
    "20656d70686173": 7896,
    "206d65737361676573": 7897,
    "2067656e646572": 7898,
    "2057656e6e": 7899,
    "20d0b2d0be": 7900,
    "20707269636573": 7901,
    "6f6c6f": 7902,
    "20d0bfd0bed0bd": 7903,
    "77696e67": 7904,
    "2046696c": 7905,
    "d0b0d0b5d0bc": 7906,
    "20437572": 7907,
    "2066616c7365": 7908,
    "206669656c6473": 7909,
    "2073c3a9": 7910,
    "3234": 7911,
    "206d6163": 7912,
    "75c59f": 7913,
    "206c6179657273": 7914,
    "206164766f63": 7915,
    "77616e": 7916,
    "206b6172": 7917,
    "20c59e": 7918,
    "206465636f72": 7919,
    "2077616c6c73": 7920,
    "6f65": 7921,
    "697373696f6e73": 7922,
    "207265736f6c": 7923,
    "d7a2": 7924,
    "204361726f6c": 7925,
    "2056696465": 7926,
    "6c656570": 7927,
    "20594f55": 7928,
    "20666c6970": 7929,
    "2073757267657279": 7930,
    "2063686f70": 7931,
    "5552": 7932,
    "2e2c": 7933,
    "206167656e6379": 7934,
    "2077616e74696e67": 7935,
    "20736f6c6172": 7936,
    "20686f72697a": 7937,
    "204164616d": 7938,
    "2073746179696e67": 7939,
    "6f6c6963": 7940,
    "20677261746566756c": 7941,
    "2072656d61726b": 7942,
    "20746563686e6f6c6f67696573": 7943,
    "2070726f7465696e": 7944,
    "e5bf83": 7945,
    "d0b4d0b5d0bb": 7946,
    "204d6f6e74": 7947,
    "2073686f756c646572": 7948,
    "207a61": 7949,
    "726579": 7950,
    "204f6f68": 7951,
    "20737479": 7952,
    "69636172": 7953,
    "d0bed182d180": 7954,
    "20726f757465": 7955,
    "205475726e": 7956,
    "20626f6d": 7957,
    "20646562617465": 7958,
    "20706f73736962696c697479": 7959,
    "20ed95b4ec": 7960,
    "617061": 7961,
    "20696e76656e74": 7962,
    "c3bc726c696368": 7963,
    "2070726f66696c65": 7964,
    "2073656e696f72": 7965,
    "707079": 7966,
    "766173": 7967,
    "206d756e646f": 7968,
    "617465766572": 7969,
    "206170706172656e746c79": 7970,
    "656e6572": 7971,
    "d790": 7972,
    "e7ad": 7973,
    "20707265636973": 7974,
    "20616c69676e": 7975,
    "206b6e696665": 7976,
    "20526f62657274": 7977,
    "e58b": 7978,
    "20666f6f6c": 7979,
    "20696e76697465": 7980,
    "7573696e67": 7981,
    "2063697263756d7374": 7982,
    "2063617074757265": 7983,
    "20646f756768": 7984,
    "2053616e64": 7985,
    "20736575": 7986,
    "204e657773": 7987,
    "2062697465": 7988,
    "206e657574": 7989,
    "77696465": 7990,
    "206c656374757265": 7991,
    "20eb9890": 7992,
    "206f726967696e616c6c79": 7993,
    "2063686f69636573": 7994,
    "20476172": 7995,
    "207665727365": 7996,
    "206c6974": 7997,
    "20313936": 7998,
    "ed95a0": 7999,
    "206d65617375726573": 8000,
    "c3a7c3b56573": 8001,
    "7761746572": 8002,
    "72697665": 8003,
    "207a696a6e": 8004,
    "ed81": 8005,
    "20427573": 8006,
    "20686562": 8007,
    "d0b5d185": 8008,
    "204b6172": 8009,
    "204ec3a36f": 8010,
    "206b696c6c696e67": 8011,
    "e0aeaa": 8012,
    "206d6972726f72": 8013,
    "6d6f64": 8014,
    "206d6f6c": 8015,
    "206372656174696f6e": 8016,
    "20657374696d": 8017,
    "2061746d6f737068657265": 8018,
    "2067616d": 8019,
    "207461626c6573": 8020,
    "697369": 8021,
    "204c6974746c65": 8022,
    "20746173": 8023,
    "20456c65": 8024,
    "c3a96c": 8025,
    "207363656e6573": 8026,
    "20746f6e65": 8027,
    "206166666563746564": 8028,
    "2041554449": 8029,
    "2042726f776e": 8030,
    "4966": 8031,
    "20d987": 8032,
    "2044616e69656c": 8033,
    "e79c9fe79a84": 8034,
    "71756572": 8035,
    "636869": 8036,
    "ed9598eb": 8037,
    "206d697374616b6573": 8038,
    "20736c61": 8039,
    "e382a4": 8040,
    "20656e7472": 8041,
    "20d0b5d181d0bbd0b8": 8042,
    "2073686f7574": 8043,
    "20706f7274696f6e": 8044,
    "d197": 8045,
    "2070726576696f75736c79": 8046,
    "e1bb99": 8047,
    "20d0bfd180d0b5d0b4": 8048,
    "d0bed181d18c": 8049,
    "206865616473": 8050,
    "e78e": 8051,
    "e5ad": 8052,
    "e59c8b": 8053,
    "206772617373": 8054,
    "e0b8b0": 8055,
    "6372696265": 8056,
    "207175c3a9": 8057,
    "205370616e697368": 8058,
    "206f666665726564": 8059,
    "20d0b1d18bd0bbd0be": 8060,
    "20436c6f7564": 8061,
    "20766563746f72": 8062,
    "20487568": 8063,
    "206b6164": 8064,
    "69667473": 8065,
    "20cebd": 8066,
    "2068756e677279": 8067,
    "d0a1": 8068,
    "20706172616c6c": 8069,
    "414e44": 8070,
    "2076c3ad64656f": 8071,
    "697a7a": 8072,
    "206f63637570": 8073,
    "20ed94": 8074,
    "207365656b": 8075,
    "686573": 8076,
    "20646f6f7273": 8077,
    "20686f75736573": 8078,
    "20636f6e7369646572696e67": 8079,
    "206772616475617465": 8080,
    "2066756c66": 8081,
    "e8a18c": 8082,
    "e8a3": 8083,
    "2065787472656d65": 8084,
    "20666c6f77657273": 8085,
    "6974617465": 8086,
    "20507269": 8087,
    "2066756e64616d656e74616c": 8088,
    "d187d0b0d181": 8089,
    "e8afb4": 8090,
    "2074657874757265": 8091,
    "8d98": 8092,
    "20414e44": 8093,
    "e0aeb1": 8094,
    "2054656d": 8095,
    "206e616461": 8096,
    "eca784": 8097,
    "2063656c656272617465": 8098,
    "756d73": 8099,
    "2070696c6c": 8100,
    "20d0b8d0bbd0b8": 8101,
    "676f696e67": 8102,
    "20686970": 8103,
    "20737570706f72746564": 8104,
    "207065726d616e": 8105,
    "2061677265656d656e74": 8106,
    "2074796d": 8107,
    "20eb91": 8108,
    "93a4ec9db4": 8109,
    "207075726368617365": 8110,
    "ed94": 8111,
    "20506c616e": 8112,
    "6567656e": 8113,
    "207265636f766572": 8114,
    "5055": 8115,
    "204d6963726f736f6674": 8116,
    "647563": 8117,
    "20686f6c6573": 8118,
    "2064726f70706564": 8119,
    "20706967": 8120,
    "20656e64696e67": 8121,
    "2061747461636b73": 8122,
    "626563": 8123,
    "2072656e": 8124,
    "2072617070": 8125,
    "20ec9ab0eba6ac": 8126,
    "20746572726f72": 8127,
    "20d799": 8128,
    "2065646974": 8129,
    "20616f": 8130,
    "2e3c2f": 8131,
    "2032303030": 8132,
    "20556e696f6e": 8133,
    "20736369656e7469666963": 8134,
    "2070756e6368": 8135,
    "6f7274696f6e": 8136,
    "2070757473": 8137,
    "204d6f6e646179": 8138,
    "204a6572": 8139,
    "4543": 8140,
    "206d6174726978": 8141,
    "20696e737469747574696f6e73": 8142,
    "206d6f6e74": 8143,
    "206578686962": 8144,
    "20737065616b6572": 8145,
    "206d6574657273": 8146,
    "2e5d": 8147,
    "2073657276696e67": 8148,
    "206461746162617365": 8149,
    "204c4155": 8150,
    "2064616d6e": 8151,
    "20706f646572": 8152,
    "21212121": 8153,
    "20ed9688": 8154,
    "2041554449454e4345": 8155,
    "206a756e": 8156,
    "204143": 8157,
    "204974616c": 8158,
    "736563": 8159,
    "20596f756e67": 8160,
    "7275636b": 8161,
    "6f757665": 8162,
    "e0b884": 8163,
    "e788": 8164,
    "20eba78ceb": 8165,
    "6164696e67": 8166,
    "75726174696f6e": 8167,
    "205053": 8168,
    "d09a": 8169,
    "20556e66": 8170,
    "e881": 8171,
    "6f726961": 8172,
    "206d616e6966": 8173,
    "2073656e74656e6365": 8174,
    "207369676e6564": 8175,
    "4253": 8176,
    "2070726f6f66": 8177,
    "204d75736c696d": 8178,
    "206e75636c656172": 8179,
    "20d0b3d0bed0b2d0bed180": 8180,
    "20776f6c6c": 8181,
    "206661766f7572": 8182,
    "205748": 8183,
    "2076756c6e6572": 8184,
    "20636c6f73656c79": 8185,
    "20696e646578": 8186,
    "d182d0b5d180": 8187,
    "616368656c": 8188,
    "2063617061626c65": 8189,
    "20426573": 8190,
    "2063726f6368": 8191,
    "656b74": 8192,
    "207368656574": 8193,
    "2073656573": 8194,
    "206e61747572616c6c79": 8195,
    "20456e676c616e64": 8196,
    "207061727469636970617465": 8197,
    "20657869737473": 8198,
    "207368617270": 8199,
    "7079": 8200,
    "20627265616b66617374": 8201,
    "626f77": 8202,
    "207477697374": 8203,
    "e7a7": 8204,
    "696e6174696e67": 8205,
    "6f7469": 8206,
    "20466f756e64": 8207,
    "2064657578": 8208,
    "2073656c6563746564": 8209,
    "eca084": 8210,
    "6f736973": 8211,
    "2070726573656e746564": 8212,
    "206c696e656172": 8213,
    "20eab4": 8214,
    "206b756e": 8215,
    "e9bb9e": 8216,
    "c3b46e67": 8217,
    "2062c49964": 8218,
    "2074656d706f72": 8219,
    "206361626c65": 8220,
    "20d0bfd180d0bed181d182d0be": 8221,
    "d0bad0b5": 8222,
    "20d182d0b0d0bc": 8223,
    "2077696e6e696e67": 8224,
    "e883bd": 8225,
    "98eb8f84": 8226,
    "2032303134": 8227,
    "20ec97aceb": 8228,
    "20554e": 8229,
    "20436c69636b": 8230,
    "20707265706172": 8231,
    "20544f": 8232,
    "20737561": 8233,
    "2048616d": 8234,
    "206cc3a4": 8235,
    "206162736f6c757465": 8236,
    "20656e6761676564": 8237,
    "e5a682": 8238,
    "20486d6d": 8239,
    "2064617368": 8240,
    "5441": 8241,
    "c3b16f73": 8242,
    "2073706f": 8243,
    "e7949f": 8244,
    "295d": 8245,
    "20746573746564": 8246,
    "20626c616e6b": 8247,
    "2072656a656374": 8248,
    "20617373696d": 8249,
    "2072656172": 8250,
    "20537472": 8251,
    "206372617368": 8252,
    "20d0bdd0b0d188": 8253,
    "d0b8d182d181d18f": 8254,
    "20636f6c6f6e": 8255,
    "20556e74": 8256,
    "204365": 8257,
    "2061636964": 8258,
    "e997": 8259,
    "206b6974": 8260,
    "6962696c6974696573": 8261,
    "75746f": 8262,
    "2076616c7561626c65": 8263,
    "6c697374": 8264,
    "2070617274696573": 8265,
    "204d6d": 8266,
    "20636f6c6f7572": 8267,
    "206368616d": 8268,
    "20737465656c": 8269,
    "20496d70": 8270,
    "2066756e6473": 8271,
    "20444e41": 8272,
    "204b656e": 8273,
    "696e6465": 8274,
    "ed95b4ec849c": 8275,
    "e38383": 8276,
    "204861707079": 8277,
    "20557365": 8278,
    "204c69676874": 8279,
    "206c6970": 8280,
    "20617574686f72697479": 8281,
    "204c6f6e67": 8282,
    "204972616e": 8283,
    "20656c6c": 8284,
    "20636f6f7264696e": 8285,
    "207375626d": 8286,
    "207265636f72646564": 8287,
    "d183d188": 8288,
    "2064656c7461": 8289,
    "207265666f726d": 8290,
    "205374696c6c": 8291,
    "206f70706f6e": 8292,
    "20616c6c6f77696e67": 8293,
    "207061747465726e73": 8294,
    "206c657474696e67": 8295,
    "20736c656570696e67": 8296,
    "4f6b6179": 8297,
    "2070697a7a61": 8298,
    "20c59b": 8299,
    "20d0b4d0bed0bb": 8300,
    "2074616c656e74": 8301,
    "656e73696f6e73": 8302,
    "20656e7669726f6e6d656e74616c": 8303,
    "2070726f666573736f72": 8304,
    "2073686f7473": 8305,
    "20636f6e7461696e73": 8306,
    "75676172": 8307,
    "796f": 8308,
    "8f99": 8309,
    "2073657175656e6365": 8310,
    "ceb9ceb1": 8311,
    "61646572": 8312,
    "e9a0": 8313,
    "d0b0d187": 8314,
    "d986d8a7": 8315,
    "20496b": 8316,
    "20746f7573": 8317,
    "7572696573": 8318,
    "20706f756e6473": 8319,
    "2065787465726e616c": 8320,
    "696d656e7473": 8321,
    "20767261696d656e74": 8322,
    "ec8ba4": 8323,
    "2068617070696e657373": 8324,
    "2070727a65": 8325,
    "6573746963": 8326,
    "2065737461626c697368": 8327,
    "20466c6f72": 8328,
    "20726967": 8329,
    "20686f6e6579": 8330,
    "2070756c": 8331,
    "2073796d70746f6d73": 8332,
    "2062726f7773": 8333,
    "d0b5d0bbd0b8": 8334,
    "20cf84cebf": 8335,
    "207368697274": 8336,
    "20546563686e": 8337,
    "2050726f6772616d": 8338,
    "d0b5d0bcd183": 8339,
    "207570736574": 8340,
    "206775657374": 8341,
    "62757267": 8342,
    "20756e6c696b65": 8343,
    "20736f6d6577686174": 8344,
    "2068616e67696e67": 8345,
    "6165": 8346,
    "2072756d": 8347,
    "2070686f746f6772617068": 8348,
    "204c69": 8349,
    "e59b9e": 8350,
    "20737461626c65": 8351,
    "20766f6c74616765": 8352,
    "20456c6c": 8353,
    "20656e7472657072656e65": 8354,
    "75736573": 8355,
    "617373656e": 8356,
    "acb8": 8357,
    "20eba78eec9db4": 8358,
    "2067686f7374": 8359,
    "20736167656e": 8360,
    "20636f6d626174": 8361,
    "2067c3b672": 8362,
    "20436170": 8363,
    "2073c3a36f": 8364,
    "204b6174": 8365,
    "20666f726d61": 8366,
    "2073756d6d": 8367,
    "206d61726368": 8368,
    "2076617374": 8369,
    "c3bc6b": 8370,
    "20636f6d6d69746d656e74": 8371,
    "696d6f73": 8372,
    "4c6574": 8373,
    "20646564696361746564": 8374,
    "69737465": 8375,
    "6c6179": 8376,
    "e98099e6a8a3": 8377,
    "20746f70696373": 8378,
    "206d616368696e6573": 8379,
    "205061726973": 8380,
    "20ec9db4eb9fb0": 8381,
    "206d696e69": 8382,
    "206d61726b657473": 8383,
    "206b6f": 8384,
    "ceb4": 8385,
    "76696c6c65": 8386,
    "20676f6f646e657373": 8387,
    "206672616d65776f726b": 8388,
    "756c74757265": 8389,
    "206261736b6574": 8390,
    "65737361": 8391,
    "d0b0d186d0b8": 8392,
    "7573746572": 8393,
    "20eab9": 8394,
    "e4bd86": 8395,
    "20657874656e74": 8396,
    "204d656e736368656e": 8397,
    "20636f6e73697374656e74": 8398,
    "206175746f": 8399,
    "726970": 8400,
    "206d657265": 8401,
    "e0af88": 8402,
    "d194": 8403,
    "20656c6c65": 8404,
    "8c80eb": 8405,
    "6f6b656e": 8406,
    "2070756c6c696e67": 8407,
    "20636f77": 8408,
    "6f75746865726e": 8409,
    "206d656574696e6773": 8410,
    "2063616461": 8411,
    "d0bdd18bd0bc": 8412,
    "69656e7465": 8413,
    "2062617374": 8414,
    "616e696e67": 8415,
    "20666f637573696e67": 8416,
    "726f6164": 8417,
    "20726f6f66": 8418,
    "2050726f666573736f72": 8419,
    "205350": 8420,
    "d180d0b0d0b7": 8421,
    "206e6f6f64": 8422,
    "20343030": 8423,
    "20ec9db4eca09c": 8424,
    "ec9e88": 8425,
    "204d6f756e74": 8426,
    "d0b5d0b9d187d0b0d181": 8427,
    "20d790": 8428,
    "576879": 8429,
    "d79e": 8430,
    "c4b16e6461": 8431,
    "20706f736974696f6e73": 8432,
    "c3a86d65": 8433,
    "e78f": 8434,
    "20d0b4d180d183d0b3": 8435,
    "69796f72": 8436,
    "2070617373696e67": 8437,
    "20617373656d62": 8438,
    "20736d6f6b65": 8439,
    "2074696c": 8440,
    "206d757365756d": 8441,
    "d094": 8442,
    "20506572736f6e": 8443,
    "d0bdd0b8d0bc": 8444,
    "6c65696368": 8445,
    "20696e74656e74": 8446,
    "2073717565": 8447,
    "206372616674": 8448,
    "ec8898": 8449,
    "6f7273756e": 8450,
    "20313530": 8451,
    "2062726f7468657273": 8452,
    "766f72": 8453,
    "20537065616b6572": 8454,
    "696369616e73": 8455,
    "206f666669636572": 8456,
    "2069c3a7696e": 8457,
    "20d182d0b5d0b1": 8458,
    "2073637261746368": 8459,
    "2067656e6572617465": 8460,
    "7969": 8461,
    "20656d6f74696f6e73": 8462,
    "617573": 8463,
    "ecb998": 8464,
    "3435": 8465,
    "204c696e6b": 8466,
    "205265616c": 8467,
    "20617465": 8468,
    "20d0bdd0b0d0b4": 8469,
    "206e6174697665": 8470,
    "e1bb87": 8471,
    "c4b179": 8472,
    "20656e6f726d": 8473,
    "20626c6f636b73": 8474,
    "206661636573": 8475,
    "616363": 8476,
    "6976656e657373": 8477,
    "20696e63686573": 8478,
    "756973": 8479,
    "68656974": 8480,
    "2073747265657473": 8481,
    "2070726f626162696c697479": 8482,
    "617369": 8483,
    "20696d706c": 8484,
    "20e0a4": 8485,
    "7572646179": 8486,
    "2066617574": 8487,
    "6f6d79": 8488,
    "20706970": 8489,
    "20696c6c757374": 8490,
    "e0aeaf": 8491,
    "204a756e": 8492,
    "206c79696e67": 8493,
    "3939": 8494,
    "206d656d6f72696573": 8495,
    "2070726163746963616c": 8496,
    "69616e61": 8497,
    "6f6e636573": 8498,
    "2076696577657273": 8499,
    "2054686f6d6173": 8500,
    "e68c": 8501,
    "204769726c": 8502,
    "2057686574686572": 8503,
    "20696e6e6f766174696f6e": 8504,
[...]
